{
  "version": "1.0",
  "truncation": null,
  "padding": null,
  "added_tokens": [
    {
      "id": 0,
      "content": "<|endoftext|>",
      "single_word": false,
      "lstrip": false,
      "rstrip": false,
      "normalized": false,
      "special": true
    },
    {
      "id": 1,
      "content": "<|pad|>",
      "single_word": false,
      "lstrip": false,
      "rstrip": false,
      "normalized": false,
      "special": true
    },
    {
      "id": 2,
      "content": "<|im_start|>",
      "single_word": false,
      "lstrip": false,
      "rstrip": false,
      "normalized": false,
      "special": true
    },
    {
      "id": 3,
      "content": "<|im_end|>",
      "single_word": false,
      "lstrip": false,
      "rstrip": false,
      "normalized": false,
      "special": true
    }
  ],
  "normalizer": null,
  "pre_tokenizer": {
    "type": "ByteLevel",
    "add_prefix_space": false,
    "trim_offsets": true,
    "use_regex": true
  },
  "post_processor": null,
  "decoder": {
    "type": "ByteLevel",
    "add_prefix_space": true,
    "trim_offsets": true,
    "use_regex": true
  },
  "model": {
    "type": "BPE",
    "dropout": null,
    "unk_token": null,
    "continuing_subword_prefix": null,
    "end_of_word_suffix": null,
    "fuse_unk": false,
    "byte_fallback": false,
    "ignore_merges": false,
    "vocab": {
      "<|endoftext|>": 0,
      "<|pad|>": 1,
      "<|im_start|>": 2,
      "<|im_end|>": 3,
      "!": 4,
      "\"": 5,
      "#": 6,
      "$": 7,
      "%": 8,
      "&": 9,
      "'": 10,
      "(": 11,
      ")": 12,
      "*": 13,
      "+": 14,
      ",": 15,
      "-": 16,
      ".": 17,
      "/": 18,
      "0": 19,
      "1": 20,
      "2": 21,
      "3": 22,
      "4": 23,
      "5": 24,
      "6": 25,
      "7": 26,
      "8": 27,
      "9": 28,
      ":": 29,
      ";": 30,
      "<": 31,
      "=": 32,
      ">": 33,
      "?": 34,
      "@": 35,
      "A": 36,
      "B": 37,
      "C": 38,
      "D": 39,
      "E": 40,
      "F": 41,
      "G": 42,
      "H": 43,
      "I": 44,
      "J": 45,
      "K": 46,
      "L": 47,
      "M": 48,
      "N": 49,
      "O": 50,
      "P": 51,
      "Q": 52,
      "R": 53,
      "S": 54,
      "T": 55,
      "U": 56,
      "V": 57,
      "W": 58,
      "X": 59,
      "Y": 60,
      "Z": 61,
      "[": 62,
      "\\": 63,
      "]": 64,
      "^": 65,
      "_": 66,
      "`": 67,
      "a": 68,
      "b": 69,
      "c": 70,
      "d": 71,
      "e": 72,
      "f": 73,
      "g": 74,
      "h": 75,
      "i": 76,
      "j": 77,
      "k": 78,
      "l": 79,
      "m": 80,
      "n": 81,
      "o": 82,
      "p": 83,
      "q": 84,
      "r": 85,
      "s": 86,
      "t": 87,
      "u": 88,
      "v": 89,
      "w": 90,
      "x": 91,
      "y": 92,
      "z": 93,
      "{": 94,
      "|": 95,
      "}": 96,
      "~": 97,
      "¡": 98,
      "¢": 99,
      "£": 100,
      "¤": 101,
      "¥": 102,
      "¦": 103,
      "§": 104,
      "¨": 105,
      "©": 106,
      "ª": 107,
      "«": 108,
      "¬": 109,
      "®": 110,
      "¯": 111,
      "°": 112,
      "±": 113,
      "²": 114,
      "³": 115,
      "´": 116,
      "µ": 117,
      "¶": 118,
      "·": 119,
      "¸": 120,
      "¹": 121,
      "º": 122,
      "»": 123,
      "¼": 124,
      "½": 125,
      "¾": 126,
      "¿": 127,
      "Â": 128,
      "Ã": 129,
      "Ä": 130,
      "Å": 131,
      "Æ": 132,
      "Ç": 133,
      "È": 134,
      "É": 135,
      "Ê": 136,
      "Ë": 137,
      "Ì": 138,
      "Í": 139,
      "Î": 140,
      "Ï": 141,
      "Ð": 142,
      "Ñ": 143,
      "Ò": 144,
      "Ó": 145,
      "Ô": 146,
      "Õ": 147,
      "Ö": 148,
      "×": 149,
      "Ø": 150,
      "Ù": 151,
      "Ú": 152,
      "Û": 153,
      "Ü": 154,
      "Ý": 155,
      "Þ": 156,
      "ß": 157,
      "à": 158,
      "á": 159,
      "â": 160,
      "ã": 161,
      "ä": 162,
      "å": 163,
      "æ": 164,
      "ç": 165,
      "è": 166,
      "é": 167,
      "ê": 168,
      "ë": 169,
      "ì": 170,
      "í": 171,
      "î": 172,
      "ï": 173,
      "ð": 174,
      "ó": 175,
      "Ĉ": 176,
      "ĉ": 177,
      "Ċ": 178,
      "č": 179,
      "Ġ": 180,
      "Ģ": 181,
      "ģ": 182,
      "Ĥ": 183,
      "ĥ": 184,
      "Ħ": 185,
      "ħ": 186,
      "Ĩ": 187,
      "ĩ": 188,
      "Ī": 189,
      "ī": 190,
      "Ĭ": 191,
      "ĭ": 192,
      "Į": 193,
      "į": 194,
      "İ": 195,
      "ı": 196,
      "Ĳ": 197,
      "ĳ": 198,
      "Ĵ": 199,
      "ĵ": 200,
      "Ķ": 201,
      "ķ": 202,
      "ĸ": 203,
      "Ĺ": 204,
      "ĺ": 205,
      "Ļ": 206,
      "ļ": 207,
      "Ľ": 208,
      "ľ": 209,
      "Ŀ": 210,
      "ŀ": 211,
      "Ł": 212,
      "ł": 213,
      "Ń": 214,
      "Ġt": 215,
      "in": 216,
      "Ġa": 217,
      "he": 218,
      "er": 219,
      "on": 220,
      "re": 221,
      "Ġthe": 222,
      "at": 223,
      "Ġs": 224,
      "en": 225,
      "Ġo": 226,
      "es": 227,
      "Ġc": 228,
      "nd": 229,
      "or": 230,
      "Ġw": 231,
      "it": 232,
      "al": 233,
      "is": 234,
      "ing": 235,
      "ed": 236,
      "an": 237,
      "Ġp": 238,
      "Ġf": 239,
      "ar": 240,
      "Ġin": 241,
      "Ġb": 242,
      "Ġof": 243,
      "ou": 244,
      "Ġand": 245,
      "ic": 246,
      "ion": 247,
      "Ġm": 248,
      "Ġto": 249,
      "Ġd": 250,
      "le": 251,
      "as": 252,
      "ro": 253,
      "ent": 254,
      "Ġh": 255,
      "ct": 256,
      "Ġe": 257,
      "il": 258,
      "Ġre": 259,
      "om": 260,
      "Ġth": 261,
      "st": 262,
      "Ġl": 263,
      "el": 264,
      "ol": 265,
      "ĠT": 266,
      "ĠS": 267,
      "Ġn": 268,
      "et": 269,
      "ation": 270,
      "ĠA": 271,
      "iv": 272,
      "ra": 273,
      "ĠC": 274,
      "ur": 275,
      "im": 276,
      "id": 277,
      "ly": 278,
      "ig": 279,
      "Ġg": 280,
      "ch": 281,
      "ce": 282,
      "us": 283,
      "ow": 284,
      "ut": 285,
      "am": 286,
      "ot": 287,
      "ers": 288,
      "Ġfor": 289,
      "ir": 290,
      "Ġst": 291,
      "Ġbe": 292,
      "Ġon": 293,
      "Ġis": 294,
      "ĠM": 295,
      "Ġ1": 296,
      "ul": 297,
      "ĠI": 298,
      "ad": 299,
      "ay": 300,
      "Ġ(": 301,
      "ith": 302,
      "ĠB": 303,
      "ter": 304,
      "her": 305,
      "Ġcon": 306,
      "un": 307,
      "Ġas": 308,
      "ĠP": 309,
      "em": 310,
      "ver": 311,
      "se": 312,
      "Ġwith": 313,
      "ist": 314,
      "Ġthat": 315,
      "âĢ": 316,
      "Ġy": 317,
      "Ġpro": 318,
      "if": 319,
      "ĠH": 320,
      "ies": 321,
      "ag": 322,
      "Ġwh": 323,
      "th": 324,
      "Ġal": 325,
      "Ġan": 326,
      "ĠThe": 327,
      "Ġex": 328,
      "od": 329,
      "Ġor": 330,
      "ĠR": 331,
      "um": 332,
      "Ġv": 333,
      "and": 334,
      "op": 335,
      "ĠW": 336,
      "Ġcom": 337,
      "ĠD": 338,
      "res": 339,
      "ess": 340,
      "Ġit": 341,
      "ab": 342,
      "ity": 343,
      "ate": 344,
      "av": 345,
      "Ġwas": 346,
      "ĠF": 347,
      "our": 348,
      "ac": 349,
      "est": 350,
      "Ġhe": 351,
      "ect": 352,
      "Ġ2": 353,
      "ĠL": 354,
      "ĠE": 355,
      "Ġde": 356,
      "Ġby": 357,
      "os": 358,
      "ain": 359,
      "ill": 360,
      "pp": 361,
      "qu": 362,
      "oc": 363,
      "'s": 364,
      "ore": 365,
      "rom": 366,
      "ts": 367,
      "ĠN": 368,
      "ĠG": 369,
      "igh": 370,
      "Ġare": 371,
      "Ġat": 372,
      "--": 373,
      "Ġsu": 374,
      "ive": 375,
      "ke": 376,
      "ld": 377,
      "ial": 378,
      "ment": 379,
      "Ġch": 380,
      "Ġfrom": 381,
      "ud": 382,
      "rou": 383,
      "ri": 384,
      "Ġse": 385,
      "all": 386,
      "00": 387,
      "Ġ19": 388,
      "Ġle": 389,
      "ical": 390,
      "ew": 391,
      "ort": 392,
      "Ġen": 393,
      "ap": 394,
      "ions": 395,
      "ure": 396,
      "ant": 397,
      "ĠJ": 398,
      "art": 399,
      "og": 400,
      "Ġr": 401,
      "ĠO": 402,
      "gh": 403,
      "ard": 404,
      "Ġus": 405,
      "Ġpl": 406,
      "pl": 407,
      "ine": 408,
      "Ġsh": 409,
      "Ġsp": 410,
      "Ġu": 411,
      "ge": 412,
      "ĠU": 413,
      "ust": 414,
      "Ġ\"": 415,
      "Ġyou": 416,
      "ec": 417,
      "out": 418,
      "ated": 419,
      "ave": 420,
      "nt": 421,
      "iz": 422,
      "ich": 423,
      "Ġab": 424,
      "ear": 425,
      "ell": 426,
      "ip": 427,
      "ations": 428,
      "ous": 429,
      "Ġint": 430,
      "Ġwor": 431,
      "ov": 432,
      "ans": 433,
      "ak": 434,
      "ight": 435,
      "ong": 436,
      "Ġcan": 437,
      "are": 438,
      "per": 439,
      "Ġtheir": 440,
      "ary": 441,
      "ome": 442,
      "ther": 443,
      "Ġwe": 444,
      "ast": 445,
      "ia": 446,
      "Ġim": 447,
      "ost": 448,
      "Ġcomp": 449,
      "end": 450,
      "ber": 451,
      "Ġthis": 452,
      "ff": 453,
      "ĠâĢ": 454,
      "The": 455,
      "Ġcont": 456,
      "act": 457,
      "Ġad": 458,
      "Ġwhe": 459,
      "du": 460,
      "pt": 461,
      "Ġun": 462,
      "ks": 463,
      "Ġnot": 464,
      "ĠIn": 465,
      "fer": 466,
      "ĠK": 467,
      "ide": 468,
      "cl": 469,
      "Ġres": 470,
      "ould": 471,
      "ru": 472,
      "ĠSt": 473,
      "ance": 474,
      "Ġk": 475,
      "ces": 476,
      "ence": 477,
      "ult": 478,
      "cc": 479,
      "ĠTh": 480,
      "Ġhave": 481,
      "age": 482,
      "ere": 483,
      "Ġhis": 484,
      "ign": 485,
      "ire": 486,
      "ents": 487,
      "orm": 488,
      "Ġdis": 489,
      "Ġthey": 490,
      "ib": 491,
      "Ġwhich": 492,
      "ian": 493,
      "ual": 494,
      "ep": 495,
      "ish": 496,
      "Ġte": 497,
      "Ġcl": 498,
      "ry": 499,
      "Ġall": 500,
      "ass": 501,
      "mer": 502,
      "Ġyour": 503,
      "able": 504,
      "----": 505,
      "Ġar": 506,
      "ach": 507,
      "ue": 508,
      "so": 509,
      "Ġj": 510,
      "Ġwere": 511,
      "ord": 512,
      "ater": 513,
      "ĠCh": 514,
      "Ġapp": 515,
      "ame": 516,
      "ind": 517,
      "ice": 518,
      "ub": 519,
      "ction": 520,
      "nder": 521,
      "ie": 522,
      "ory": 523,
      "rit": 524,
      "ood": 525,
      "ress": 526,
      "Ġman": 527,
      "erv": 528,
      "ors": 529,
      "ile": 530,
      "Ġabout": 531,
      "ang": 532,
      "Ġne": 533,
      "Ġhas": 534,
      "ition": 535,
      "vel": 536,
      "Ġother": 537,
      "ack": 538,
      "Ġme": 539,
      "ĠV": 540,
      "ely": 541,
      "oo": 542,
      "ime": 543,
      "Ġper": 544,
      "ric": 545,
      "Ġwho": 546,
      "ating": 547,
      "Ġev": 548,
      "Ġalso": 549,
      "tern": 550,
      "Ġits": 551,
      "Ġinto": 552,
      "rough": 553,
      "ens": 554,
      "ild": 555,
      "Ġimp": 556,
      "one": 557,
      "Ġbut": 558,
      "over": 559,
      "Ġ200": 560,
      "Ġ20": 561,
      "Ġone": 562,
      "Ġsc": 563,
      "Ġmore": 564,
      "ike": 565,
      "âĢĻ": 566,
      "form": 567,
      "ace": 568,
      "Ġtra": 569,
      "Ġpre": 570,
      "ings": 571,
      "ond": 572,
      "own": 573,
      "19": 574,
      "ount": 575,
      "Ġcomm": 576,
      "ph": 577,
      "ities": 578,
      "Ġwill": 579,
      "ates": 580,
      "ound": 581,
      "Ġdo": 582,
      "),": 583,
      "Ġout": 584,
      "Ġpart": 585,
      "olog": 586,
      "Ġthese": 587,
      "Ġthem": 588,
      "Ġbec": 589,
      "Ġup": 590,
      "ĠĠ": 591,
      "Ġro": 592,
      "Ġpe": 593,
      ").": 594,
      "Ġunder": 595,
      "ĠY": 596,
      "ons": 597,
      "ious": 598,
      "irst": 599,
      "Ġrec": 600,
      "uring": 601,
      "ne": 602,
      "ake": 603,
      "reat": 604,
      "ase": 605,
      "oll": 606,
      "ĠUn": 607,
      "ĠâĢĵ": 608,
      "ite": 609,
      "ve": 610,
      "Ġag": 611,
      "Ġhad": 612,
      "we": 613,
      "ree": 614,
      "ose": 615,
      "Ġso": 616,
      "Ġbet": 617,
      "ational": 618,
      "ople": 619,
      "ail": 620,
      "ific": 621,
      "Ġind": 622,
      "ĠIt": 623,
      "hed": 624,
      "round": 625,
      "very": 626,
      "king": 627,
      "lect": 628,
      "ough": 629,
      "Ġqu": 630,
      "Ġra": 631,
      "ng": 632,
      "les": 633,
      "Ġkn": 634,
      "Ġ3": 635,
      "Ġstud": 636,
      "Ġtr": 637,
      "ays": 638,
      "clud": 639,
      "Ġdes": 640,
      "amp": 641,
      "ĠHe": 642,
      "ms": 643,
      "Ġhow": 644,
      "ool": 645,
      "wn": 646,
      "Ġwhen": 647,
      "In": 648,
      "te": 649,
      "Ġover": 650,
      "Ġtw": 651,
      "Ġsy": 652,
      "ics": 653,
      "aus": 654,
      "ob": 655,
      "ning": 656,
      "ally": 657,
      "Ġcons": 658,
      "lic": 659,
      "Ġyear": 660,
      "Ġlike": 661,
      "Ġem": 662,
      "fter": 663,
      "Ġ-": 664,
      "Ġtime": 665,
      "Ġthrough": 666,
      "Ġsome": 667,
      "Ġinter": 668,
      "Ġnew": 669,
      "Ġact": 670,
      "ced": 671,
      "Ġfirst": 672,
      "Ġour": 673,
      "Ġrel": 674,
      "ll": 675,
      "ys": 676,
      "ark": 677,
      "old": 678,
      "Ġher": 679,
      "Ġsuch": 680,
      "ures": 681,
      "Ġinclud": 682,
      "ath": 683,
      "ivers": 684,
      "ĠThis": 685,
      "Ġthere": 686,
      "Ġacc": 687,
      "Ġbeen": 688,
      "ful": 689,
      "Ġpeople": 690,
      "als": 691,
      "Ġrep": 692,
      "ences": 693,
      "Ġthan": 694,
      "Ġplay": 695,
      "Ġpr": 696,
      "Ġdif": 697,
      "aw": 698,
      "Ġcre": 699,
      "ased": 700,
      "Ġinc": 701,
      "rib": 702,
      "Ġfe": 703,
      "oin": 704,
      "Ġ201": 705,
      "Ġmay": 706,
      "meric": 707,
      "ular": 708,
      "Ġam": 709,
      "Ġreg": 710,
      "Ġtwo": 711,
      "oth": 712,
      "**": 713,
      "Ġspec": 714,
      "Ġwould": 715,
      "ss": 716,
      "ween": 717,
      "iss": 718,
      "âĢĵ": 719,
      "Ġinv": 720,
      "Ġrem": 721,
      "eg": 722,
      "uc": 723,
      "ract": 724,
      "land": 725,
      "pect": 726,
      "ject": 727,
      "ower": 728,
      "ited": 729,
      "ient": 730,
      "erm": 731,
      "ments": 732,
      "ative": 733,
      "Ġcol": 734,
      "Ġfl": 735,
      "Ġass": 736,
      "ward": 737,
      "Ġgen": 738,
      "hip": 739,
      "Ġbetween": 740,
      "velop": 741,
      "Ġ18": 742,
      "chool": 743,
      "oy": 744,
      "Ġprov": 745,
      "ict": 746,
      "Ġac": 747,
      "ied": 748,
      "stem": 749,
      "Ġatt": 750,
      "ife": 751,
      "eth": 752,
      "lp": 753,
      "Ġwork": 754,
      "pe": 755,
      "hen": 756,
      "Ġwhere": 757,
      "Ġeff": 758,
      "gan": 759,
      "ren": 760,
      "ting": 761,
      "oci": 762,
      "ility": 763,
      "Ġwhat": 764,
      "tain": 765,
      "Ġinst": 766,
      "Ġph": 767,
      "Ġhelp": 768,
      "ists": 769,
      "Ġoff": 770,
      "Ġexpl": 771,
      "Ġprodu": 772,
      "ook": 773,
      "hes": 774,
      "ade": 775,
      "--------": 776,
      "ten": 777,
      "Ġbl": 778,
      "elf": 779,
      "fore": 780,
      "Ġdisc": 781,
      "Ġ4": 782,
      "chn": 783,
      "ident": 784,
      "Ġbu": 785,
      "alth": 786,
      "red": 787,
      "row": 788,
      "ex": 789,
      "Ġdiffer": 790,
      "ĠAmeric": 791,
      "ember": 792,
      "ives": 793,
      "ily": 794,
      "stand": 795,
      "ement": 796,
      "Ġsur": 797,
      "ural": 798,
      "dition": 799,
      "ram": 800,
      "Ġtrans": 801,
      "âĢĿ": 802,
      "Ġmost": 803,
      "ise": 804,
      "Ġany": 805,
      "Ġpos": 806,
      "orn": 807,
      "arch": 808,
      "ft": 809,
      "ause": 810,
      "Ġsa": 811,
      "Ġpers": 812,
      "Ġduring": 813,
      "Ġuse": 814,
      "Ġ199": 815,
      "Ġonly": 816,
      "ever": 817,
      "Ġdevelop": 818,
      "ĠAr": 819,
      "Ġsub": 820,
      "ĠCom": 821,
      "Ġif": 822,
      "urn": 823,
      "its": 824,
      "Ġafter": 825,
      "ues": 826,
      "ran": 827,
      "ism": 828,
      "Ġserv": 829,
      "cy": 830,
      "Ġwhile": 831,
      "ines": 832,
      "Ġpol": 833,
      "ted": 834,
      "Ġmany": 835,
      "Ġob": 836,
      "Ġvar": 837,
      "Ġloc": 838,
      "Ġmod": 839,
      "Ġsign": 840,
      "ĠAl": 841,
      "Ġpres": 842,
      "Ġused": 843,
      "Ġdec": 844,
      "ible": 845,
      "ont": 846,
      "aking": 847,
      "ick": 848,
      "Ġexper": 849,
      "Ġexp": 850,
      "Ġcommun": 851,
      "Ġcall": 852,
      "Ġlear": 853,
      "Ġshe": 854,
      "Ġ5": 855,
      "iqu": 856,
      "ution": 857,
      "'t": 858,
      "ience": 859,
      "Ġsystem": 860,
      "Ġneed": 861,
      "ature": 862,
      "Ġsupp": 863,
      "Ġsm": 864,
      "io": 865,
      "Ġcould": 866,
      "Ġart": 867,
      "ins": 868,
      "Ġear": 869,
      "Ġform": 870,
      "ness": 871,
      "Ġworld": 872,
      "ology": 873,
      "Ġevery": 874,
      "ĠNew": 875,
      "Ġgo": 876,
      "ollow": 877,
      "Ġnum": 878,
      "Ġhist": 879,
      "Ġyears": 880,
      "cer": 881,
      "Ġcent": 882,
      "other": 883,
      "ection": 884,
      "ices": 885,
      "Ġins": 886,
      "Ġsec": 887,
      "vent": 888,
      "Ġno": 889,
      "ential": 890,
      "Ġsim": 891,
      "Ġed": 892,
      "Ġdist": 893,
      "ork": 894,
      "ĠâĢľ": 895,
      "||": 896,
      "roup": 897,
      "Ġset": 898,
      "oun": 899,
      "cess": 900,
      "arg": 901,
      "Ġtechn": 902,
      "ef": 903,
      "20": 904,
      "ble": 905,
      "Ġinf": 906,
      "Ġent": 907,
      "Ġhigh": 908,
      "Ġco": 909,
      "ĠAs": 910,
      "Ġfam": 911,
      "Ġwell": 912,
      "ĠPro": 913,
      "ished": 914,
      "Ġmed": 915,
      "Ġfound": 916,
      "inal": 917,
      "iel": 918,
      "ix": 919,
      "Ġcomple": 920,
      ".\"": 921,
      "ized": 922,
      "Ġeven": 923,
      "Ġlead": 924,
      "Ġgra": 925,
      "Ġthen": 926,
      "ars": 927,
      "Ġpub": 928,
      "arm": 929,
      "Ġmov": 930,
      "ah": 931,
      "ale": 932,
      "ĠWh": 933,
      "any": 934,
      "ug": 935,
      "ically": 936,
      "led": 937,
      "ision": 938,
      "ider": 939,
      "ange": 940,
      "eng": 941,
      "ruct": 942,
      "up": 943,
      "air": 944,
      "uch": 945,
      "ather": 946,
      "ĠĊ": 947,
      "Ġstr": 948,
      "imes": 949,
      "iversity": 950,
      "cept": 951,
      "ral": 952,
      "Ġfollow": 953,
      "Ġknow": 954,
      "ury": 955,
      "Ġjust": 956,
      "Ġval": 957,
      "Ġhum": 958,
      "Ġboth": 959,
      "iew": 960,
      "por": 961,
      "cent": 962,
      "ional": 963,
      "Ġagain": 964,
      "Ġeach": 965,
      "ck": 966,
      "ivid": 967,
      "Ġdifferent": 968,
      "Ġhim": 969,
      "tle": 970,
      "app": 971,
      "ier": 972,
      "Ġthose": 973,
      "Ġchild": 974,
      "olv": 975,
      "ages": 976,
      "ata": 977,
      "Ġpop": 978,
      "ĠFor": 979,
      "Ġown": 980,
      "Ġwithin": 981,
      "ink": 982,
      "Ġbel": 983,
      "ĠAn": 984,
      "Ġback": 985,
      "Ġend": 986,
      "Ġunderstand": 987,
      "oh": 988,
      "ize": 989,
      "Ġprog": 990,
      "els": 991,
      "Ġschool": 992,
      "Ġke": 993,
      "ee": 994,
      "Ġbeing": 995,
      "uss": 996,
      "ety": 997,
      "Ġcount": 998,
      "Ġsom": 999,
      "Ġgener": 1000,
      "Ġbefore": 1001,
      "ik": 1002,
      "Ġlife": 1003,
      "Ġimport": 1004,
      "Ġext": 1005,
      "Ġest": 1006,
      "ince": 1007,
      "way": 1008,
      "ets": 1009,
      "iving": 1010,
      "overn": 1011,
      "Ġpartic": 1012,
      "Ġdef": 1013,
      "Ġmade": 1014,
      "Ġcap": 1015,
      "ty": 1016,
      "ield": 1017,
      "Ġhealth": 1018,
      "ĠHow": 1019,
      "ĠInd": 1020,
      "ually": 1021,
      "Ġ6": 1022,
      "ĠSp": 1023,
      "ross": 1024,
      "Ġdet": 1025,
      "az": 1026,
      "Ġlong": 1027,
      "Ġaut": 1028,
      "Ġplan": 1029,
      "Ġusing": 1030,
      "Ġgroup": 1031,
      "Ġchar": 1032,
      "Ġty": 1033,
      "ev": 1034,
      "Ġmain": 1035,
      "ample": 1036,
      "ĠAmerican": 1037,
      "Ġpat": 1038,
      "Ġcare": 1039,
      "ton": 1040,
      "outh": 1041,
      "ality": 1042,
      "Ġwrit": 1043,
      "au": 1044,
      "Ġcult": 1045,
      "ĠThey": 1046,
      "ok": 1047,
      "Ġcalled": 1048,
      "ĠSh": 1049,
      "Ġsk": 1050,
      "Ġwater": 1051,
      "Ġsee": 1052,
      "Ġinform": 1053,
      "ron": 1054,
      "Ġdesign": 1055,
      "erg": 1056,
      "Ġgu": 1057,
      "ĠSc": 1058,
      "ax": 1059,
      "Ġadd": 1060,
      "Ġrese": 1061,
      "lish": 1062,
      "Ġmin": 1063,
      "rop": 1064,
      "oot": 1065,
      "ights": 1066,
      "Ġfun": 1067,
      "Ġpar": 1068,
      "Ġmus": 1069,
      "raph": 1070,
      "Ġ198": 1071,
      "ĠCon": 1072,
      "..": 1073,
      "Ġeng": 1074,
      "Ġcontin": 1075,
      "ows": 1076,
      "Ġcur": 1077,
      "xt": 1078,
      "Ġfil": 1079,
      "und": 1080,
      "Ġaround": 1081,
      "Ġcar": 1082,
      "man": 1083,
      "ands": 1084,
      "cing": 1085,
      "iron": 1086,
      "ock": 1087,
      "ĠAd": 1088,
      "con": 1089,
      "Ġrequ": 1090,
      "ared": 1091,
      "irect": 1092,
      "Ġpract": 1093,
      "Ġperson": 1094,
      "ason": 1095,
      "ĠWe": 1096,
      "ames": 1097,
      "Ġprocess": 1098,
      "Ġdep": 1099,
      "Ġpower": 1100,
      "Ġadv": 1101,
      "ĠBy": 1102,
      "Ġeffect": 1103,
      "Ġbecause": 1104,
      "Ġop": 1105,
      "Ġret": 1106,
      "orth": 1107,
      "Ġincre": 1108,
      "Ġthree": 1109,
      "der": 1110,
      "Ġmon": 1111,
      "ute": 1112,
      "Ġmy": 1113,
      "itions": 1114,
      "ital": 1115,
      "Ġread": 1116,
      "ove": 1117,
      "ividual": 1118,
      "ories": 1119,
      "Ġmight": 1120,
      "iver": 1121,
      "ĠDe": 1122,
      "Th": 1123,
      "Ġbuild": 1124,
      "bers": 1125,
      "Ġmat": 1126,
      "the": 1127,
      "Ġway": 1128,
      "Ġorgan": 1129,
      "aj": 1130,
      "Ġincluding": 1131,
      "Ġsever": 1132,
      "Ġlit": 1133,
      "Ġfind": 1134,
      "ash": 1135,
      "Re": 1136,
      "Ġresp": 1137,
      "get": 1138,
      "com": 1139,
      "Ġknown": 1140,
      "Ġref": 1141,
      "ived": 1142,
      "Ġmake": 1143,
      "Ġprom": 1144,
      "Ġfact": 1145,
      "ĠEng": 1146,
      "ouse": 1147,
      "Ġmem": 1148,
      "ferences": 1149,
      "ern": 1150,
      "omen": 1151,
      "Ġ7": 1152,
      "Ġindividual": 1153,
      "ĠThese": 1154,
      "ired": 1155,
      "ĠUnited": 1156,
      "Ġlet": 1157,
      "gg": 1158,
      "akes": 1159,
      "ball": 1160,
      "Ġsmall": 1161,
      "200": 1162,
      "Ġshould": 1163,
      "ograph": 1164,
      "Ġsaid": 1165,
      "cial": 1166,
      "Ġconst": 1167,
      "Ġoften": 1168,
      "viron": 1169,
      "Ġgl": 1170,
      "Ġclass": 1171,
      "Ġdown": 1172,
      "ases": 1173,
      "ocial": 1174,
      "ining": 1175,
      "ĠIs": 1176,
      "ĠLe": 1177,
      "Ġconsider": 1178,
      "Ġstart": 1179,
      "Ġ197": 1180,
      "ulation": 1181,
      "Ġgrow": 1182,
      "Ġequ": 1183,
      "day": 1184,
      "rodu": 1185,
      "Ġconf": 1186,
      "Ġprovid": 1187,
      "Ġsl": 1188,
      "ĠSe": 1189,
      "Ġprof": 1190,
      "riend": 1191,
      "ization": 1192,
      "ody": 1193,
      "ĠCl": 1194,
      "lished": 1195,
      "ĠUniversity": 1196,
      "Ġprot": 1197,
      "Ġsame": 1198,
      "Ġthough": 1199,
      "Ġdid": 1200,
      "âĢĶ": 1201,
      "Ġ10": 1202,
      "orts": 1203,
      "ĠCol": 1204,
      "pr": 1205,
      "Ġdel": 1206,
      "Ġav": 1207,
      "ively": 1208,
      "Ġrele": 1209,
      "Ġmuch": 1210,
      "ately": 1211,
      "Ġget": 1212,
      "Ġdi": 1213,
      "til": 1214,
      "Ġvarious": 1215,
      "Ġser": 1216,
      "Ġexample": 1217,
      "Ġday": 1218,
      "ĠEx": 1219,
      "Ġlearn": 1220,
      "hem": 1221,
      "ling": 1222,
      "Ġdata": 1223,
      "Ġsupport": 1224,
      "Ġbr": 1225,
      "Ġnow": 1226,
      "Ġagainst": 1227,
      "Ġstudents": 1228,
      "ccess": 1229,
      "Ġgovern": 1230,
      "rent": 1231,
      "ians": 1232,
      "uro": 1233,
      "18": 1234,
      "angu": 1235,
      "Ġ8": 1236,
      "Ġdoes": 1237,
      "Ġvis": 1238,
      "Ġnumber": 1239,
      "Ġinformation": 1240,
      "ple": 1241,
      ".,": 1242,
      "Ġcharact": 1243,
      "nect": 1244,
      "ner": 1245,
      "Ġ&": 1246,
      "ven": 1247,
      "ined": 1248,
      "Ġbro": 1249,
      "to": 1250,
      "ci": 1251,
      ",\"": 1252,
      "Ġteam": 1253,
      "Ġ'": 1254,
      "read": 1255,
      "Ġappro": 1256,
      "Ġcontro": 1257,
      "Ġdem": 1258,
      "Ġstudy": 1259,
      "ĠZ": 1260,
      "Ġsol": 1261,
      "ead": 1262,
      "ull": 1263,
      "orld": 1264,
      "Ġperform": 1265,
      "Ġelect": 1266,
      "000": 1267,
      "aving": 1268,
      "Ġhuman": 1269,
      "Ġ||": 1270,
      "oring": 1271,
      "Ġsignific": 1272,
      "ternal": 1273,
      "ĠĠĠĠ": 1274,
      "ering": 1275,
      "Ġoper": 1276,
      "Ġpass": 1277,
      "Ġele": 1278,
      "Ġpoin": 1279,
      "ior": 1280,
      "Ġposs": 1281,
      "ains": 1282,
      "resent": 1283,
      "Ġocc": 1284,
      "Ġfac": 1285,
      "ency": 1286,
      "Ex": 1287,
      "Ġpot": 1288,
      "Ġident": 1289,
      "ently": 1290,
      "Ġvery": 1291,
      "iness": 1292,
      "Ġimportant": 1293,
      "ources": 1294,
      "oss": 1295,
      "wards": 1296,
      "Ġbeh": 1297,
      "ants": 1298,
      "ves": 1299,
      "Ġreal": 1300,
      "ĠAnd": 1301,
      "Ġchall": 1302,
      "Ġfin": 1303,
      "Ġlevel": 1304,
      "Ġeduc": 1305,
      "Ġactiv": 1306,
      "Ġdr": 1307,
      "Ġ9": 1308,
      "Ġdirect": 1309,
      "ĠStates": 1310,
      "Ġopen": 1311,
      "St": 1312,
      "rist": 1313,
      "ination": 1314,
      "ĠAt": 1315,
      "Ġcour": 1316,
      "Ġopp": 1317,
      "Ġseveral": 1318,
      "ina": 1319,
      "Ġpublic": 1320,
      "ohn": 1321,
      "Ġamong": 1322,
      "Ġiss": 1323,
      "vironment": 1324,
      "ĠCan": 1325,
      "ique": 1326,
      "Ġsecond": 1327,
      "Ġanother": 1328,
      "Ġless": 1329,
      "ird": 1330,
      "ret": 1331,
      "ances": 1332,
      "Ġaff": 1333,
      "par": 1334,
      "Ġ196": 1335,
      "ĠPl": 1336,
      "Ġsing": 1337,
      "ateg": 1338,
      "Ġmet": 1339,
      "esp": 1340,
      "Ġshow": 1341,
      "Ġestab": 1342,
      "References": 1343,
      "ĠBut": 1344,
      "port": 1345,
      "Ġorig": 1346,
      "less": 1347,
      "Ġhistory": 1348,
      "ĠOn": 1349,
      "ĠYou": 1350,
      "Ġlater": 1351,
      "de": 1352,
      "ĠComm": 1353,
      "ĠPh": 1354,
      "hers": 1355,
      "Ch": 1356,
      "ĠQ": 1357,
      "Ġchildren": 1358,
      "reen": 1359,
      "ability": 1360,
      "Ġtake": 1361,
      "be": 1362,
      "Ġalong": 1363,
      "Ġbo": 1364,
      "ium": 1365,
      "iven": 1366,
      "Ġinvolv": 1367,
      "enn": 1368,
      "Ġrecord": 1369,
      "Ġstate": 1370,
      "bs": 1371,
      "Ġuntil": 1372,
      "Ġfood": 1373,
      "rat": 1374,
      "Ġfriend": 1375,
      "ilar": 1376,
      "ĠHowever": 1377,
      "ration": 1378,
      "Ġbased": 1379,
      "Ġdue": 1380,
      "Ġfamily": 1381,
      "ify": 1382,
      "Ġproble": 1383,
      "urther": 1384,
      "ĠOr": 1385,
      "by": 1386,
      "Ġleg": 1387,
      "eral": 1388,
      "Ġplace": 1389,
      "Ġarea": 1390,
      "Ġnear": 1391,
      "osed": 1392,
      "Ġquest": 1393,
      "Ġresearch": 1394,
      "ples": 1395,
      "Ġmanag": 1396,
      "clus": 1397,
      "lu": 1398,
      "arge": 1399,
      "Ġtest": 1400,
      "Ġcrit": 1401,
      "gether": 1402,
      "vers": 1403,
      "Ġtogether": 1404,
      "Ġcor": 1405,
      "ditional": 1406,
      "ley": 1407,
      "Ġsocial": 1408,
      "Ġright": 1409,
      "ries": 1410,
      "Ġair": 1411,
      "Ġothers": 1412,
      "Ġpur": 1413,
      "##": 1414,
      "Ġlaw": 1415,
      "inks": 1416,
      "ergy": 1417,
      "Ġearly": 1418,
      "ethod": 1419,
      "10": 1420,
      "Ġredu": 1421,
      "Ġcle": 1422,
      "ense": 1423,
      "Ġgood": 1424,
      "aterial": 1425,
      "Ġpolit": 1426,
      "Ġbecame": 1427,
      "ards": 1428,
      "Ġchang": 1429,
      "Ġcer": 1430,
      "Ġfour": 1431,
      "ths": 1432,
      "Ã©": 1433,
      "ills": 1434,
      "Ġens": 1435,
      "ological": 1436,
      "iod": 1437,
      "Ġanal": 1438,
      "Ġsuccess": 1439,
      "Ġbelie": 1440,
      "Ġmust": 1441,
      "ĠRe": 1442,
      "ission": 1443,
      "ann": 1444,
      "abor": 1445,
      "Ġbus": 1446,
      "ĠMar": 1447,
      "Ġide": 1448,
      "Ġbecome": 1449,
      "ĠBe": 1450,
      "Ġpresent": 1451,
      "line": 1452,
      "ris": 1453,
      "mp": 1454,
      "ially": 1455,
      "Ġ17": 1456,
      "Ġinterest": 1457,
      "ank": 1458,
      "Ġmar": 1459,
      "Ġstill": 1460,
      "ĠWar": 1461,
      "conom": 1462,
      "ogn": 1463,
      "ental": 1464,
      "ery": 1465,
      "Ġcommon": 1466,
      "Ġsit": 1467,
      "ĠEn": 1468,
      "Ġimpro": 1469,
      "ternational": 1470,
      "self": 1471,
      "ocus": 1472,
      "Âł": 1473,
      "Ġlangu": 1474,
      "ĠJohn": 1475,
      "----------------": 1476,
      "itive": 1477,
      "ats": 1478,
      "Ġhand": 1479,
      "une": 1480,
      "Ġwithout": 1481,
      "ĠWorld": 1482,
      "Ġexam": 1483,
      "Ġword": 1484,
      "Ġinclude": 1485,
      "ething": 1486,
      "ĠNational": 1487,
      "Ġresult": 1488,
      "Ġlocal": 1489,
      "ilit": 1490,
      "Ġfollowing": 1491,
      "Ġtyp": 1492,
      "Ġallow": 1493,
      "Ġsignificant": 1494,
      "yn": 1495,
      "Ġsoci": 1496,
      "rain": 1497,
      "Ġpo": 1498,
      "Ġcreate": 1499,
      "ajor": 1500,
      "Ġhome": 1501,
      "Ġprin": 1502,
      "ention": 1503,
      "Ġbetter": 1504,
      "gin": 1505,
      "Ġimm": 1506,
      "hor": 1507,
      "Ġ15": 1508,
      "ĠBl": 1509,
      "Ġconnect": 1510,
      "ording": 1511,
      "Ġrun": 1512,
      "Ġstand": 1513,
      "Ġcomplex": 1514,
      "Ġess": 1515,
      "Ġrest": 1516,
      "ney": 1517,
      "Ġmean": 1518,
      "Ġter": 1519,
      "As": 1520,
      "ĠShe": 1521,
      "Ġbre": 1522,
      "Ġmark": 1523,
      "ape": 1524,
      "aster": 1525,
      "sy": 1526,
      "Ġlist": 1527,
      "Ġlearning": 1528,
      "ober": 1529,
      "Ġenc": 1530,
      "Ġsomething": 1531,
      "Ġtre": 1532,
      "Ġmaterial": 1533,
      "Ġdesc": 1534,
      "Ġdevelopment": 1535,
      "Ġris": 1536,
      "rict": 1537,
      "Ġbas": 1538,
      "ĠIf": 1539,
      "Ġproject": 1540,
      "ered": 1541,
      "Ġsince": 1542,
      "rag": 1543,
      "Ġmult": 1544,
      "Ġenvironment": 1545,
      "apter": 1546,
      "Ġ=": 1547,
      "``": 1548,
      "Ġstre": 1549,
      "Ġgreat": 1550,
      "Ġold": 1551,
      "Ġwar": 1552,
      "Wh": 1553,
      "Ġfeel": 1554,
      "Ġpotential": 1555,
      "Ġtop": 1556,
      "Ġrece": 1557,
      "Ġname": 1558,
      "Ġwant": 1559,
      "ĠTe": 1560,
      "agine": 1561,
      "Ġmethod": 1562,
      "izing": 1563,
      "ĠWhen": 1564,
      "ored": 1565,
      "ults": 1566,
      "Ġunderstanding": 1567,
      "ways": 1568,
      "Ġrole": 1569,
      "Ġchange": 1570,
      "my": 1571,
      "Ġcontrib": 1572,
      "Ġlarge": 1573,
      "ĠMay": 1574,
      "ĠCar": 1575,
      "isc": 1576,
      "Ġacross": 1577,
      "Ġtreat": 1578,
      "Ġtem": 1579,
      "ĠBrit": 1580,
      "iam": 1581,
      "ained": 1582,
      "let": 1583,
      "Ġwomen": 1584,
      "Ġphys": 1585,
      "Ġ194": 1586,
      "Ġtoo": 1587,
      "Ġland": 1588,
      "ued": 1589,
      "ĠChrist": 1590,
      "ote": 1591,
      "ĠCent": 1592,
      "amed": 1593,
      "Ġrepresent": 1594,
      "ified": 1595,
      "Ġbody": 1596,
      "ters": 1597,
      "urope": 1598,
      "Ġlinks": 1599,
      "Ġchalleng": 1600,
      "Ġmusic": 1601,
      "ĠThere": 1602,
      "ane": 1603,
      "idd": 1604,
      "Ġcell": 1605,
      "Ġfunction": 1606,
      "iences": 1607,
      "ĠSo": 1608,
      "Ġhapp": 1609,
      "Ġfocus": 1610,
      "Ġmaking": 1611,
      "Ġgovernment": 1612,
      "Ġhead": 1613,
      "Ġprogram": 1614,
      "Ġanim": 1615,
      "Ġben": 1616,
      "Ġspecial": 1617,
      "Ġhistor": 1618,
      "Ġrev": 1619,
      "ales": 1620,
      "ode": 1621,
      "Ġrelations": 1622,
      "ĠSchool": 1623,
      "Ġ16": 1624,
      "ended": 1625,
      "ploy": 1626,
      "ĠAll": 1627,
      "Ġfore": 1628,
      "oms": 1629,
      "Ġmen": 1630,
      "Ġstruct": 1631,
      "Ġnon": 1632,
      "ĠRes": 1633,
      "ooks": 1634,
      "Ġparticular": 1635,
      "sel": 1636,
      "Ġfoot": 1637,
      "atural": 1638,
      "ortun": 1639,
      "ĠAf": 1640,
      "\".": 1641,
      "Ġel": 1642,
      "Ġ195": 1643,
      "ption": 1644,
      "ots": 1645,
      "Ġfield": 1646,
      "Ġfre": 1647,
      "Ġbest": 1648,
      "ids": 1649,
      "ilities": 1650,
      "Ġ12": 1651,
      "ĠAust": 1652,
      "agn": 1653,
      "Ġdeath": 1654,
      "Ġlast": 1655,
      "ved": 1656,
      "Ġ$": 1657,
      "ditions": 1658,
      "uture": 1659,
      "olution": 1660,
      "Ġprofess": 1661,
      "Ġoffer": 1662,
      "ym": 1663,
      "Ġcharacter": 1664,
      "Ġappear": 1665,
      "Ġassoci": 1666,
      "Ġstat": 1667,
      "aut": 1668,
      "Ġlight": 1669,
      "Ġfew": 1670,
      "ray": 1671,
      "Ġeas": 1672,
      "Ġcommunity": 1673,
      "Ġcontrol": 1674,
      "iting": 1675,
      "ĠGerm": 1676,
      "rap": 1677,
      "ried": 1678,
      "Ġperiod": 1679,
      "istic": 1680,
      "aces": 1681,
      "ĠEurope": 1682,
      "Ġdiscuss": 1683,
      "bum": 1684,
      "Ġupon": 1685,
      "illion": 1686,
      "eb": 1687,
      "Ġproduct": 1688,
      "Ġkeep": 1689,
      "ĠYork": 1690,
      "Ġplayers": 1691,
      "ĠCount": 1692,
      "ised": 1693,
      "Ġproper": 1694,
      "hern": 1695,
      "Ġcaus": 1696,
      "Ġreport": 1697,
      "Ġseason": 1698,
      "alk": 1699,
      "Ġturn": 1700,
      "Ġaccess": 1701,
      "oman": 1702,
      "ware": 1703,
      "ĠTo": 1704,
      "ients": 1705,
      "though": 1706,
      "Ġdon": 1707,
      "199": 1708,
      "Ġ**": 1709,
      "Ġvari": 1710,
      "Ġeconom": 1711,
      "Ġsaf": 1712,
      "here": 1713,
      "ĠMan": 1714,
      "Ġdev": 1715,
      "ring": 1716,
      "oph": 1717,
      "ĠOne": 1718,
      "Ġdiscover": 1719,
      "ending": 1720,
      "osp": 1721,
      "Ġthings": 1722,
      "ipp": 1723,
      "ĠSouth": 1724,
      "ĠAm": 1725,
      "son": 1726,
      "imate": 1727,
      "ones": 1728,
      "Ġcomb": 1729,
      "ication": 1730,
      "Ġlim": 1731,
      "rid": 1732,
      "Ġ.": 1733,
      "side": 1734,
      "Ġmajor": 1735,
      "Ġfilm": 1736,
      "arc": 1737,
      "Ġreturn": 1738,
      "hips": 1739,
      "ĠâĢĶ": 1740,
      "asc": 1741,
      "Ġseries": 1742,
      "ai": 1743,
      "ole": 1744,
      "This": 1745,
      "Ġinflu": 1746,
      "ĠThat": 1747,
      "Ġmeas": 1748,
      "Ġmembers": 1749,
      "Ġbusiness": 1750,
      "Ġprovide": 1751,
      "Ġenergy": 1752,
      "Ġjour": 1753,
      "Ġline": 1754,
      "sc": 1755,
      "idence": 1756,
      "min": 1757,
      "ilt": 1758,
      "Ġdra": 1759,
      "Ġyoung": 1760,
      "Ġorder": 1761,
      "External": 1762,
      "ĠMus": 1763,
      "Ġoffic": 1764,
      "Ġmeans": 1765,
      "Ġsimilar": 1766,
      "urch": 1767,
      "Ġpain": 1768,
      "Ġrespons": 1769,
      "ols": 1770,
      "Ġscient": 1771,
      "Ġinvest": 1772,
      "Ġstory": 1773,
      "ĠAss": 1774,
      "12": 1775,
      "\",": 1776,
      "irc": 1777,
      "ĠWith": 1778,
      "Ġsystems": 1779,
      "ĠGe": 1780,
      "Ġconcer": 1781,
      "Ġant": 1782,
      "Ġcentury": 1783,
      "Ġlook": 1784,
      "Ġdise": 1785,
      "Ġvers": 1786,
      "ecess": 1787,
      "utions": 1788,
      "Ġever": 1789,
      "Ġessential": 1790,
      "Ġtimes": 1791,
      "augh": 1792,
      "ott": 1793,
      "ague": 1794,
      "ffic": 1795,
      "II": 1796,
      "Ġche": 1797,
      "Ġareas": 1798,
      "ivity": 1799,
      "Ġpost": 1800,
      "Ġcity": 1801,
      "Ġbi": 1802,
      "ĠNorth": 1803,
      "Ġcomput": 1804,
      "Ġobject": 1805,
      "Ġspe": 1806,
      "On": 1807,
      "af": 1808,
      "ister": 1809,
      "Ġworks": 1810,
      "Ġsym": 1811,
      "etimes": 1812,
      "ung": 1813,
      "iction": 1814,
      "Ġspecific": 1815,
      "atic": 1816,
      "eter": 1817,
      "Ġunique": 1818,
      "ibr": 1819,
      "Ġbook": 1820,
      "ĠCal": 1821,
      "Ġthink": 1822,
      "Ġinit": 1823,
      "Ġwin": 1824,
      "ox": 1825,
      "Ġlarg": 1826,
      "ator": 1827,
      "ival": 1828,
      "ope": 1829,
      "put": 1830,
      "ression": 1831,
      "ĠIm": 1832,
      "Ġer": 1833,
      "Ġshort": 1834,
      "work": 1835,
      "ements": 1836,
      "Ġcurrent": 1837,
      "Ġcertain": 1838,
      "Ġself": 1839,
      "Ġavail": 1840,
      "Ġlanguage": 1841,
      "Ġseem": 1842,
      "Ġstrong": 1843,
      "oad": 1844,
      "ĠUS": 1845,
      "Ġleft": 1846,
      "asing": 1847,
      "Ġcountry": 1848,
      "stit": 1849,
      "Ġfuture": 1850,
      "ĠGu": 1851,
      "Ġimpact": 1852,
      "Al": 1853,
      "Ġ`": 1854,
      "Ġhy": 1855,
      "Ġpopulation": 1856,
      "Ġthroughout": 1857,
      "Ġann": 1858,
      "ĠMed": 1859,
      "Ġemb": 1860,
      "Ġbegan": 1861,
      "selves": 1862,
      "illed": 1863,
      "Ġexplore": 1864,
      "Ġview": 1865,
      "ĠAfric": 1866,
      "Ġexist": 1867,
      "Ġet": 1868,
      "Ġcolle": 1869,
      "Ġindividuals": 1870,
      "Ġgame": 1871,
      "Ġrad": 1872,
      "Ġwhy": 1873,
      "ument": 1874,
      "Ġsong": 1875,
      "Ġspecies": 1876,
      "ey": 1877,
      "ĠAfter": 1878,
      "Ġalbum": 1879,
      "of": 1880,
      "Ġnext": 1881,
      "ster": 1882,
      "Ġcome": 1883,
      "ĠTr": 1884,
      "ides": 1885,
      "Ġ[": 1886,
      "Ġjoin": 1887,
      "sh": 1888,
      "ource": 1889,
      "Ġhaving": 1890,
      "Ġmaintain": 1891,
      "ĠPr": 1892,
      "Ġopt": 1893,
      "Ġcal": 1894,
      "ze": 1895,
      "Ġtown": 1896,
      "ography": 1897,
      "Ġcompet": 1898,
      "ches": 1899,
      "Ġtowards": 1900,
      "Ġmodern": 1901,
      "17": 1902,
      "Ġprev": 1903,
      "aring": 1904,
      "Ġ0": 1905,
      "Ġstrateg": 1906,
      "atures": 1907,
      "rem": 1908,
      "Ġprim": 1909,
      ".âĢĿ": 1910,
      "rand": 1911,
      "Ġauthor": 1912,
      "aim": 1913,
      "Ġill": 1914,
      "Ġtoday": 1915,
      "Ġbuilding": 1916,
      "ĠCanad": 1917,
      "Ġsingle": 1918,
      "ublic": 1919,
      "ledge": 1920,
      "Ġoccur": 1921,
      "aps": 1922,
      "15": 1923,
      "Ġ14": 1924,
      "Ġhig": 1925,
      "ured": 1926,
      "Ġhere": 1927,
      "Ġevent": 1928,
      "Ġ193": 1929,
      "Ġliter": 1930,
      "Ġsw": 1931,
      "Ġpast": 1932,
      "Ġeducation": 1933,
      "Ġpress": 1934,
      "lev": 1935,
      "ĠEar": 1936,
      "Ġbenef": 1937,
      "iques": 1938,
      "clusion": 1939,
      "Ġbir": 1940,
      "ruction": 1941,
      "ert": 1942,
      "sequ": 1943,
      "ĠGen": 1944,
      "Ġprop": 1945,
      "Ġ13": 1946,
      "Ġvol": 1947,
      "Ġcreat": 1948,
      "acy": 1949,
      "It": 1950,
      "ĠJu": 1951,
      "ush": 1952,
      "Ġcoll": 1953,
      "Ġage": 1954,
      "Ġprotect": 1955,
      "Ġfurther": 1956,
      "duct": 1957,
      "Ġcollect": 1958,
      "ae": 1959,
      "Ġcost": 1960,
      "Ġgiven": 1961,
      "ĠEnglish": 1962,
      "Ġcase": 1963,
      "Ġrelig": 1964,
      "Ġnational": 1965,
      "ĠHis": 1966,
      "ĠBritish": 1967,
      "Ġsay": 1968,
      "Ġwee": 1969,
      "ators": 1970,
      "for": 1971,
      "Ġindust": 1972,
      "ĠFl": 1973,
      "Ġpolic": 1974,
      "Ġgre": 1975,
      "ably": 1976,
      "Ġobs": 1977,
      "ĠPar": 1978,
      "ony": 1979,
      "ĠSu": 1980,
      "str": 1981,
      "Ġrecogn": 1982,
      "ĠPol": 1983,
      "Ġissues": 1984,
      "ĠRep": 1985,
      "ĠAustral": 1986,
      "Ġaffect": 1987,
      "Ġkey": 1988,
      "16": 1989,
      "Ġrefer": 1990,
      "ext": 1991,
      "ĠĠĠ": 1992,
      "omm": 1993,
      "Ġapplic": 1994,
      "Ġworking": 1995,
      "An": 1996,
      "omes": 1997,
      "Ġnatural": 1998,
      "Ġfriends": 1999,
      "apan": 2000,
      "Ġgroups": 2001,
      "oid": 2002,
      "Ġtry": 2003,
      "ibility": 2004,
      "sp": 2005,
      "chie": 2006,
      "Ġfar": 2007,
      "aging": 2008,
      "ĠCounty": 2009,
      "att": 2010,
      "Ġavailable": 2011,
      "Ġbegin": 2012,
      "ggest": 2013,
      "Ġsuggest": 2014,
      "Ġcr": 2015,
      "Ġtechnology": 2016,
      "Ġopportun": 2017,
      "atch": 2018,
      "Ġpoint": 2019,
      "urg": 2020,
      "Ġspace": 2021,
      "Ġnecess": 2022,
      "ĠJan": 2023,
      "Ġlow": 2024,
      "Ġcover": 2025,
      "Ġexc": 2026,
      "Ġemploy": 2027,
      "Ġnamed": 2028,
      "ese": 2029,
      "Ġways": 2030,
      "Ġnet": 2031,
      "Ġcourse": 2032,
      "ĠGod": 2033,
      "elling": 2034,
      "ĠReg": 2035,
      "ĠState": 2036,
      "che": 2037,
      "Ġdescrib": 2038,
      "Ġhard": 2039,
      "aper": 2040,
      "Ġparticip": 2041,
      "istory": 2042,
      "Ġmot": 2043,
      "Ġpossible": 2044,
      "Ġdeb": 2045,
      "ither": 2046,
      "Ġresources": 2047,
      "Ġpopular": 2048,
      "ĠNov": 2049,
      "gen": 2050,
      "aries": 2051,
      "Ġrespect": 2052,
      "iet": 2053,
      "ours": 2054,
      "Ġtook": 2055,
      "lement": 2056,
      "Ġsound": 2057,
      "Ġground": 2058,
      "Ġtru": 2059,
      "ĠSome": 2060,
      "ĠAb": 2061,
      "'re": 2062,
      "dom": 2063,
      "Ġ2006": 2064,
      "Ġbehav": 2065,
      "Ġdeterm": 2066,
      "uary": 2067,
      "ugust": 2068,
      "ivil": 2069,
      "Ġplayed": 2070,
      "13": 2071,
      "yl": 2072,
      "Ġstep": 2073,
      "Ġexperience": 2074,
      "iverse": 2075,
      "Ġaway": 2076,
      "ĠKing": 2077,
      "Ġsum": 2078,
      "obal": 2079,
      "erc": 2080,
      "Ġpersonal": 2081,
      "Ġside": 2082,
      "int": 2083,
      "Ġformer": 2084,
      "Ġalways": 2085,
      "mit": 2086,
      "ĠRec": 2087,
      "lex": 2088,
      "Ġtype": 2089,
      "ened": 2090,
      "Ġfootball": 2091,
      "Ġaddress": 2092,
      "Ġcame": 2093,
      "ires": 2094,
      "14": 2095,
      "Ġemer": 2096,
      "Ġhold": 2097,
      "rad": 2098,
      "orpor": 2099,
      "ules": 2100,
      "apt": 2101,
      "Ġhowever": 2102,
      "ille": 2103,
      "porary": 2104,
      "alf": 2105,
      "Ġrepl": 2106,
      "Ġarr": 2107,
      "ĠCity": 2108,
      "amb": 2109,
      "lying": 2110,
      "ien": 2111,
      "Ġobserv": 2112,
      "thing": 2113,
      "Ġlittle": 2114,
      "ising": 2115,
      "iple": 2116,
      "utes": 2117,
      "Ġestablished": 2118,
      "Ġevents": 2119,
      "inary": 2120,
      "Ġaspect": 2121,
      "Ġregard": 2122,
      "nal": 2123,
      "Ġstories": 2124,
      "icle": 2125,
      "atory": 2126,
      "face": 2127,
      "Ġcommunities": 2128,
      "ulations": 2129,
      "Ġintrodu": 2130,
      "Ġprevent": 2131,
      "Ġwon": 2132,
      "ĊĊ": 2133,
      "ĠX": 2134,
      "ysis": 2135,
      "aced": 2136,
      "ĠBro": 2137,
      "aching": 2138,
      "Ġgrowth": 2139,
      "Now": 2140,
      "Ġchallenges": 2141,
      "ps": 2142,
      "tt": 2143,
      "Ġengine": 2144,
      "now": 2145,
      "ĠNo": 2146,
      "ables": 2147,
      "Ġterm": 2148,
      "epend": 2149,
      "Ġarch": 2150,
      "Ġpercent": 2151,
      "fully": 2152,
      "nov": 2153,
      "Ġfund": 2154,
      "ĠCo": 2155,
      "adem": 2156,
      "ĠWill": 2157,
      "iber": 2158,
      "Ġdeep": 2159,
      "oney": 2160,
      "etic": 2161,
      "Ġfull": 2162,
      "Ġskills": 2163,
      "Ġcamp": 2164,
      "Ġpolitical": 2165,
      "ĠMe": 2166,
      "ges": 2167,
      "Ġput": 2168,
      "urb": 2169,
      "ĠHar": 2170,
      "Ġhouse": 2171,
      "yle": 2172,
      "med": 2173,
      "21": 2174,
      "icult": 2175,
      "imately": 2176,
      "Ġcirc": 2177,
      "Ġfive": 2178,
      "Ġla": 2179,
      "Ġmeet": 2180,
      "estern": 2181,
      "pts": 2182,
      "esc": 2183,
      "aken": 2184,
      "aches": 2185,
      "Ġgr": 2186,
      "ĠEd": 2187,
      "Ġplant": 2188,
      "cle": 2189,
      "anced": 2190,
      "Ġdiff": 2191,
      "Ġep": 2192,
      "Ġkind": 2193,
      "sych": 2194,
      "ptember": 2195,
      "Ġdays": 2196,
      "Ġsuper": 2197,
      "ĠJapan": 2198,
      "oon": 2199,
      "Ġconditions": 2200,
      "ĠFran": 2201,
      "aves": 2202,
      "aren": 2203,
      "):": 2204,
      "Ġnever": 2205,
      "Ġlevels": 2206,
      "ĠSy": 2207,
      "11": 2208,
      "198": 2209,
      "Ġbuilt": 2210,
      "Ġexperiences": 2211,
      "ĠMin": 2212,
      "reg": 2213,
      "Ġpattern": 2214,
      "ĠAugust": 2215,
      "Ġport": 2216,
      "umb": 2217,
      "ĠOct": 2218,
      "rench": 2219,
      "yth": 2220,
      "Ġscience": 2221,
      "Ġchanges": 2222,
      "ask": 2223,
      "ĠComp": 2224,
      "Ġrisk": 2225,
      "ĠUnder": 2226,
      "ĠBar": 2227,
      "...": 2228,
      "Ġclear": 2229,
      "ĠStud": 2230,
      "pril": 2231,
      "Ġmind": 2232,
      "ham": 2233,
      "ns": 2234,
      "Ġcompany": 2235,
      "ĠWhat": 2236,
      "Ġmodel": 2237,
      "Ġnature": 2238,
      "Ġknowledge": 2239,
      "ilitary": 2240,
      "ĠAmerica": 2241,
      "ĠMarch": 2242,
      "erson": 2243,
      "Ġpublished": 2244,
      "Ġphot": 2245,
      "Ġsitu": 2246,
      "50": 2247,
      "ison": 2248,
      "iol": 2249,
      "iles": 2250,
      "Ġvir": 2251,
      "standing": 2252,
      "ili": 2253,
      "Ġask": 2254,
      "come": 2255,
      "Ġfree": 2256,
      "Ġachie": 2257,
      "Ġwords": 2258,
      "Ġdig": 2259,
      "Ġsomeone": 2260,
      "ided": 2261,
      "ĠTra": 2262,
      "cem": 2263,
      "Ġtechniques": 2264,
      "ĠEm": 2265,
      "Ġcultural": 2266,
      "Ġnov": 2267,
      "ming": 2268,
      "ification": 2269,
      "Ġmakes": 2270,
      "Ġgames": 2271,
      "ooking": 2272,
      "Ġbig": 2273,
      "ĠAct": 2274,
      "Ġliving": 2275,
      "Ġdisease": 2276,
      "uck": 2277,
      "Ġtraditional": 2278,
      "Ġoriginal": 2279,
      "raft": 2280,
      "Ġlik": 2281,
      "Ġinstead": 2282,
      "Ġey": 2283,
      "Ġsays": 2284,
      "Ġsometimes": 2285,
      "Ġable": 2286,
      "ops": 2287,
      "Ġcreated": 2288,
      "inking": 2289,
      "Ġresults": 2290,
      "Ġmillion": 2291,
      "Ġassociated": 2292,
      "wh": 2293,
      "ĠJune": 2294,
      "acks": 2295,
      "Ġunit": 2296,
      ",âĢĿ": 2297,
      "ĠWest": 2298,
      "Ġhistorical": 2299,
      "ips": 2300,
      "aining": 2301,
      "rams": 2302,
      "Ġactivities": 2303,
      "Ġz": 2304,
      "Ġwhether": 2305,
      "Ġ30": 2306,
      "Ġblood": 2307,
      "Ġproblem": 2308,
      "Ġproduction": 2309,
      "inally": 2310,
      "Ġreleased": 2311,
      "Ġled": 2312,
      "Ġbroad": 2313,
      "icip": 2314,
      "inating": 2315,
      "Ġsix": 2316,
      "ground": 2317,
      "Ġinteg": 2318,
      "ene": 2319,
      "ites": 2320,
      "Ġthought": 2321,
      "Ġpractice": 2322,
      "Ġproblems": 2323,
      "Ġonce": 2324,
      "ged": 2325,
      "Ġcru": 2326,
      "Ġemot": 2327,
      "Ġrather": 2328,
      "ĠSec": 2329,
      "ĠHigh": 2330,
      "ĠSeptember": 2331,
      "co": 2332,
      "ĠJuly": 2333,
      "Ġsens": 2334,
      "Ġdom": 2335,
      "To": 2336,
      "Ġeveryone": 2337,
      "Ġcapt": 2338,
      "eal": 2339,
      "ĠThrough": 2340,
      "Ġtit": 2341,
      "ched": 2342,
      "Ġanc": 2343,
      "emporary": 2344,
      "Ġsite": 2345,
      "ĠDr": 2346,
      "alt": 2347,
      "Ġquestions": 2348,
      "Ġrights": 2349,
      "Ġcountries": 2350,
      "cember": 2351,
      "ĠSw": 2352,
      "Ġheart": 2353,
      "ĠColle": 2354,
      "uel": 2355,
      "artment": 2356,
      "ender": 2357,
      "Ġgeneral": 2358,
      "Ġfig": 2359,
      "Ġthemselves": 2360,
      "Ġstarted": 2361,
      "ma": 2362,
      "Ġvalue": 2363,
      "ler": 2364,
      "ĠWhile": 2365,
      "ront": 2366,
      "Ġenough": 2367,
      "Ġlive": 2368,
      "Ġheld": 2369,
      "ios": 2370,
      "Ġtypes": 2371,
      "ecially": 2372,
      "avor": 2373,
      "ĠGeor": 2374,
      "ners": 2375,
      "ĠII": 2376,
      "ideo": 2377,
      "Ġlocated": 2378,
      "ino": 2379,
      "Ġlay": 2380,
      "Ġshare": 2381,
      "born": 2382,
      "sw": 2383,
      "erous": 2384,
      "ww": 2385,
      "Ġcoun": 2386,
      "Ġsent": 2387,
      "attle": 2388,
      "Ġclos": 2389,
      "Ġarg": 2390,
      "ĠApp": 2391,
      "Ġdam": 2392,
      "ele": 2393,
      "ĠOctober": 2394,
      "Ġculture": 2395,
      "not": 2396,
      "Ġcause": 2397,
      "ĠJanuary": 2398,
      "Ġ2007": 2399,
      "ĠApril": 2400,
      "iddle": 2401,
      "atives": 2402,
      "Ġfost": 2403,
      "Ġesp": 2404,
      "Ġresearc": 2405,
      "ications": 2406,
      "rig": 2407,
      "Ġsurround": 2408,
      "icro": 2409,
      "Ġpred": 2410,
      "Ġtot": 2411,
      "ned": 2412,
      "hib": 2413,
      "Ġlate": 2414,
      "Ġpromot": 2415,
      "Americ": 2416,
      "Ġdiv": 2417,
      "Ġlives": 2418,
      "atter": 2419,
      "cil": 2420,
      "Ġinteract": 2421,
      "aff": 2422,
      "go": 2423,
      "Section": 2424,
      "ĠPe": 2425,
      "Ġencou": 2426,
      "ana": 2427,
      "ĠEl": 2428,
      "Ġgive": 2429,
      "Ġestablish": 2430,
      "Ġservices": 2431,
      "Ġpriv": 2432,
      "Ġcomes": 2433,
      "ĠInt": 2434,
      "ĠPart": 2435,
      "Ġstation": 2436,
      "Ġrequire": 2437,
      "Ġ11": 2438,
      "Ġinsp": 2439,
      "ĠLet": 2440,
      "fact": 2441,
      "orks": 2442,
      "Ġconsum": 2443,
      "ĠMc": 2444,
      "Ġtemper": 2445,
      "reci": 2446,
      "ĠHer": 2447,
      "ampions": 2448,
      "uted": 2449,
      "Ġsociety": 2450,
      "eds": 2451,
      "Ġneg": 2452,
      "Ġcareer": 2453,
      "Ġgoing": 2454,
      "ening": 2455,
      "iment": 2456,
      "aul": 2457,
      "bo": 2458,
      "most": 2459,
      "Ġservice": 2460,
      "Ġallows": 2461,
      "Ġdifficult": 2462,
      "Ġdoc": 2463,
      "ĠChar": 2464,
      "Ġemp": 2465,
      "ĠJew": 2466,
      "Ġdest": 2467,
      "Ġpractices": 2468,
      "ĠCont": 2469,
      "Ġneeds": 2470,
      "Ġnar": 2471,
      "Ġusually": 2472,
      "Ġcritical": 2473,
      "Ġvill": 2474,
      "ĠDep": 2475,
      "22": 2476,
      "Ġnorm": 2477,
      "ĠPer": 2478,
      "Ġaccording": 2479,
      "Ġexpect": 2480,
      "rel": 2481,
      "val": 2482,
      "ĠSim": 2483,
      "Ġentire": 2484,
      "Ġhigher": 2485,
      "Ġprevious": 2486,
      "Ġphysical": 2487,
      "Ġschools": 2488,
      "Ġfactors": 2489,
      "urs": 2490,
      "levision": 2491,
      "Ġinternational": 2492,
      "ĠArt": 2493,
      "Ġmeaning": 2494,
      "Ġbar": 2495,
      "Ġcho": 2496,
      "Ġcells": 2497,
      "Ġwritten": 2498,
      "Ġmaterials": 2499,
      "Ġstudies": 2500,
      "Ġconsist": 2501,
      "ĠAg": 2502,
      "ream": 2503,
      "Ġwind": 2504,
      "Ġcreating": 2505,
      "Ġexploring": 2506,
      "Ġregion": 2507,
      "Ġremember": 2508,
      "Ġonline": 2509,
      "Ġ2008": 2510,
      "Ġfinal": 2511,
      "Ġyet": 2512,
      "chan": 2513,
      "irit": 2514,
      "Ġtreatment": 2515,
      "Ġespecially": 2516,
      "Ġquestion": 2517,
      "ĠDecember": 2518,
      "right": 2519,
      "Ġappreci": 2520,
      "ĠRuss": 2521,
      "Ġfall": 2522,
      "Ġseen": 2523,
      "Ġvalu": 2524,
      "Ġ2010": 2525,
      "lands": 2526,
      "Ġtext": 2527,
      "irl": 2528,
      "197": 2529,
      "See": 2530,
      "ief": 2531,
      "Ġclub": 2532,
      "rug": 2533,
      "Ġleading": 2534,
      "play": 2535,
      "Ġcust": 2536,
      "joy": 2537,
      "Ġsubject": 2538,
      "Ġabove": 2539,
      "ĠFrench": 2540,
      "Ġhelps": 2541,
      "Ġclaim": 2542,
      "iforn": 2543,
      "__": 2544,
      "earch": 2545,
      "Ġlove": 2546,
      "icated": 2547,
      "ached": 2548,
      "urity": 2549,
      "Ġmanagement": 2550,
      "ford": 2551,
      "ĠNovember": 2552,
      "aly": 2553,
      "light": 2554,
      "ĠCons": 2555,
      "Ġelements": 2556,
      "Ġmarket": 2557,
      "Ġ|": 2558,
      "izations": 2559,
      "ule": 2560,
      "One": 2561,
      "Ġdemon": 2562,
      "uk": 2563,
      "Ġfrequ": 2564,
      "Ġconcept": 2565,
      "American": 2566,
      "Ġinstance": 2567,
      "Ġcy": 2568,
      "Ġdetail": 2569,
      "Ġrou": 2570,
      "ĠPres": 2571,
      "Ġcut": 2572,
      "Ġred": 2573,
      "Ġmag": 2574,
      "Ġtools": 2575,
      "Ġlands": 2576,
      "Ġmethods": 2577,
      "Ġge": 2578,
      "Ġensure": 2579,
      "bor": 2580,
      "hood": 2581,
      "br": 2582,
      "elt": 2583,
      "ores": 2584,
      "ump": 2585,
      "ises": 2586,
      "ging": 2587,
      "Ġincluded": 2588,
      "olic": 2589,
      "Ġdraw": 2590,
      "ifornia": 2591,
      "Ġparts": 2592,
      "Ġrange": 2593,
      "Ġglobal": 2594,
      "Ġenh": 2595,
      "Ġdeveloped": 2596,
      "Ġshap": 2597,
      "Ġ2011": 2598,
      "itor": 2599,
      "Ġmember": 2600,
      "Ġexpress": 2601,
      "Ġfail": 2602,
      "'ll": 2603,
      "Ġfem": 2604,
      "He": 2605,
      "ĠGl": 2606,
      "Ġbooks": 2607,
      "Ġteac": 2608,
      "ĠPark": 2609,
      "Ġplants": 2610,
      "Ġmor": 2611,
      "ebru": 2612,
      "ĠLeague": 2613,
      "itud": 2614,
      "rew": 2615,
      "Ġevidence": 2616,
      "ebruary": 2617,
      "Ġlab": 2618,
      "Ġeither": 2619,
      "Ġbreak": 2620,
      "Ġsimple": 2621,
      "Ġvaluable": 2622,
      "isions": 2623,
      "Ġfasc": 2624,
      "ĠDav": 2625,
      "ends": 2626,
      "Ġincreasing": 2627,
      "Ġlower": 2628,
      "Con": 2629,
      "Ġ2009": 2630,
      "```": 2631,
      "Ġnorth": 2632,
      "ĠQu": 2633,
      "Ġreceived": 2634,
      "Ġsepar": 2635,
      "minist": 2636,
      "Ġdeg": 2637,
      "Ġreflect": 2638,
      "Ġ2005": 2639,
      "Ġheav": 2640,
      "ington": 2641,
      "Ġanimals": 2642,
      "ĠMore": 2643,
      "Ġeth": 2644,
      "Ġbehind": 2645,
      "Ġmix": 2646,
      "ems": 2647,
      "Ġtravel": 2648,
      "Ġeffic": 2649,
      "Ġperformance": 2650,
      "omp": 2651,
      "Ġtotal": 2652,
      "Ġharm": 2653,
      "Ġaim": 2654,
      "Ġtaken": 2655,
      "ĠWilliam": 2656,
      "Ġposition": 2657,
      "Ġaction": 2658,
      "rance": 2659,
      "ondon": 2660,
      "ĠEarth": 2661,
      "Ġconduct": 2662,
      "Ġ25": 2663,
      "istance": 2664,
      "het": 2665,
      "oose": 2666,
      "ĠMon": 2667,
      "Ġdesigned": 2668,
      "Ġprovides": 2669,
      "Ġregular": 2670,
      "Ġmass": 2671,
      "uments": 2672,
      "ĠIndian": 2673,
      "Ġleast": 2674,
      "duc": 2675,
      "Ġchem": 2676,
      "Ġcontinue": 2677,
      "Ġincreased": 2678,
      "Ġbal": 2679,
      "Ġbeaut": 2680,
      "For": 2681,
      "Ġthird": 2682,
      "eh": 2683,
      "Ġcompon": 2684,
      "Ġhalf": 2685,
      "Ġloss": 2686,
      "Ġinnov": 2687,
      "ĠCalifornia": 2688,
      "like": 2689,
      "ĠGerman": 2690,
      "Ġaud": 2691,
      "Ġsat": 2692,
      "Ġinvolved": 2693,
      "rim": 2694,
      "We": 2695,
      "Ġsold": 2696,
      "Ġenvironmental": 2697,
      "Ġvalues": 2698,
      "There": 2699,
      "ara": 2700,
      "Ġquick": 2701,
      "eum": 2702,
      "cies": 2703,
      "ving": 2704,
      "yond": 2705,
      "ĠRiver": 2706,
      "Ġresearchers": 2707,
      "Ġenjoy": 2708,
      "hel": 2709,
      "ĠJust": 2710,
      "century": 2711,
      "Ġcross": 2712,
      "emb": 2713,
      "Ġtaking": 2714,
      "Ġconsidered": 2715,
      "Ġtell": 2716,
      "Ġnav": 2717,
      "Ġpay": 2718,
      "Ã¡": 2719,
      "Ġsex": 2720,
      "Ġ2012": 2721,
      "Ġstreng": 2722,
      "view": 2723,
      "Ġborn": 2724,
      "Ġserved": 2725,
      "ords": 2726,
      "aling": 2727,
      "Ġfeatures": 2728,
      "ĠPhil": 2729,
      "Chapter": 2730,
      "based": 2731,
      "Ġband": 2732,
      "Im": 2733,
      "Ġdiverse": 2734,
      "Ġmedical": 2735,
      "Ġefforts": 2736,
      "eration": 2737,
      "ĠSm": 2738,
      "ĠEngland": 2739,
      "Ġmultiple": 2740,
      ":**": 2741,
      "na": 2742,
      "Ġdistrib": 2743,
      "fect": 2744,
      "ctions": 2745,
      "istics": 2746,
      "Ġcontinued": 2747,
      "Ġcompan": 2748,
      "Ġsurface": 2749,
      "icate": 2750,
      "ĠCollege": 2751,
      "lam": 2752,
      "Ġneeded": 2753,
      "arents": 2754,
      "Ġabs": 2755,
      "ume": 2756,
      "ĠRev": 2757,
      "Ġnecessary": 2758,
      "Ġstates": 2759,
      "Ġwent": 2760,
      "Ġpoints": 2761,
      "arily": 2762,
      "Ġeffects": 2763,
      "Ġproduced": 2764,
      "Ġwond": 2765,
      "Ġcollabor": 2766,
      "inated": 2767,
      "Ġforms": 2768,
      "Ġpath": 2769,
      "hold": 2770,
      "NA": 2771,
      "iation": 2772,
      "abit": 2773,
      "Ġanalysis": 2774,
      "Ġjourney": 2775,
      "Ġmoney": 2776,
      "Ġoverall": 2777,
      "rior": 2778,
      "23": 2779,
      "icles": 2780,
      "itect": 2781,
      "Ġanaly": 2782,
      "Ġsoft": 2783,
      "osition": 2784,
      "rick": 2785,
      "istor": 2786,
      "What": 2787,
      "Ġopportunities": 2788,
      "more": 2789,
      "Ġsqu": 2790,
      "Ġparticularly": 2791,
      "Ġmilitary": 2792,
      "Ġcommit": 2793,
      "Ġprob": 2794,
      "Ġtraining": 2795,
      "Ġcrucial": 2796,
      "ĠFebruary": 2797,
      "Ġincrease": 2798,
      "Ġitself": 2799,
      "Ġincorpor": 2800,
      "key": 2801,
      "Ġquality": 2802,
      "oor": 2803,
      "Ġmach": 2804,
      "ĠAc": 2805,
      "Ġbring": 2806,
      "Ġshows": 2807,
      "Step": 2808,
      "Ġaccount": 2809,
      "Ġdoct": 2810,
      "ready": 2811,
      "Ġselect": 2812,
      "ĠInternational": 2813,
      "Ġsust": 2814,
      "roduction": 2815,
      "ensive": 2816,
      "iring": 2817,
      "Ġprec": 2818,
      "Ġprovided": 2819,
      "Ġaltern": 2820,
      "Ġlikely": 2821,
      "Ġver": 2822,
      "ĠFrom": 2823,
      "chol": 2824,
      "Ġcases": 2825,
      "Ġblack": 2826,
      "oes": 2827,
      "Ġprograms": 2828,
      "Ġweek": 2829,
      "Ġut": 2830,
      "ccording": 2831,
      "lin": 2832,
      "oved": 2833,
      "Ġstar": 2834,
      "Ġleaders": 2835,
      "Ġwid": 2836,
      "Ġtransform": 2837,
      "Ġroad": 2838,
      "Ġcontemporary": 2839,
      "ĠBo": 2840,
      "Ġeconomic": 2841,
      "Ġofficial": 2842,
      "Ġattem": 2843,
      "Ġhost": 2844,
      "Ġaddition": 2845,
      "Ġcolor": 2846,
      "Ġwebs": 2847,
      "Ġmom": 2848,
      "âĢľ": 2849,
      "ĠAng": 2850,
      "Ġchapter": 2851,
      "Ġflow": 2852,
      "Ġindepend": 2853,
      "ius": 2854,
      "Ġstru": 2855,
      "Ġearl": 2856,
      "Ġ2000": 2857,
      "30": 2858,
      "ĠLondon": 2859,
      "Ġreading": 2860,
      "ura": 2861,
      "Ġcancer": 2862,
      "col": 2863,
      "Ġson": 2864,
      "aily": 2865,
      "Ġdemonstr": 2866,
      "ancial": 2867,
      "verage": 2868,
      "Ġsouth": 2869,
      "ederal": 2870,
      "Ġ2004": 2871,
      "Ġ,": 2872,
      "oday": 2873,
      "Ġsun": 2874,
      "oming": 2875,
      "Ġfire": 2876,
      "ĠHealth": 2877,
      "ger": 2878,
      "ĠSan": 2879,
      "ift": 2880,
      "Ġattention": 2881,
      "Ġoil": 2882,
      "rought": 2883,
      "ades": 2884,
      "igen": 2885,
      "ror": 2886,
      "Ġwhite": 2887,
      "Ġviol": 2888,
      "Ġidea": 2889,
      "Ġmedia": 2890,
      "ĠChristian": 2891,
      "den": 2892,
      "ĠCanada": 2893,
      "pro": 2894,
      "ervation": 2895,
      "Ġclose": 2896,
      "###": 2897,
      "Ġapproach": 2898,
      "Ġbrain": 2899,
      "ĠEuropean": 2900,
      "arent": 2901,
      "SA": 2902,
      "Ġcop": 2903,
      "Un": 2904,
      "riate": 2905,
      "orthern": 2906,
      "Ġimplement": 2907,
      "Ġdecl": 2908,
      "Ġinstit": 2909,
      "vey": 2910,
      "Ġdied": 2911,
      "iers": 2912,
      "ditionally": 2913,
      "Ġpurp": 2914,
      "ĠPre": 2915,
      "Ġsurv": 2916,
      "Ġcharacters": 2917,
      "Ġstrategies": 2918,
      "ference": 2919,
      "erve": 2920,
      "Ġbeyond": 2921,
      "Ġsize": 2922,
      "Ġbehavior": 2923,
      "Ġpsych": 2924,
      "oses": 2925,
      "ellow": 2926,
      "Ġvideo": 2927,
      ".)": 2928,
      "Ġalready": 2929,
      "Ġcomputer": 2930,
      "Ġmonths": 2931,
      "Ġste": 2932,
      "Ġfeature": 2933,
      "edi": 2934,
      "Ġpatterns": 2935,
      "ĠNe": 2936,
      "Ġtour": 2937,
      "cks": 2938,
      "Ġoutside": 2939,
      "Ġminim": 2940,
      "ica": 2941,
      "Ġ24": 2942,
      "How": 2943,
      "ilies": 2944,
      "Ġbur": 2945,
      "196": 2946,
      "Ġmess": 2947,
      "**:": 2948,
      "ologies": 2949,
      "reek": 2950,
      "Ġyourself": 2951,
      "ĠIndia": 2952,
      "Ġcommunication": 2953,
      "inct": 2954,
      "osing": 2955,
      "bon": 2956,
      "ĠInstit": 2957,
      "ĠAssoci": 2958,
      "Ġfarm": 2959,
      "Ġstay": 2960,
      "Ġreve": 2961,
      "Ġreview": 2962,
      "ĠHouse": 2963,
      "ibrary": 2964,
      "ĠDuring": 2965,
      "Ġ100": 2966,
      "ĠChurch": 2967,
      "Ġpaper": 2968,
      "Ġtarg": 2969,
      "ĠTw": 2970,
      "Ġcivil": 2971,
      "ico": 2972,
      "ustr": 2973,
      "ript": 2974,
      "outhern": 2975,
      "Ġreason": 2976,
      "Ġsure": 2977,
      "head": 2978,
      "order": 2979,
      "Ġface": 2980,
      "Ġversion": 2981,
      "Ġreligious": 2982,
      "Ġ190": 2983,
      "Ġrequired": 2984,
      "ulate": 2985,
      "ply": 2986,
      "Ġclimate": 2987,
      "25": 2988,
      "Ġpatients": 2989,
      "Ġperspect": 2990,
      "Ġjob": 2991,
      "Ġproducts": 2992,
      "alu": 2993,
      "ĠEast": 2994,
      "ĠInter": 2995,
      "Ġflu": 2996,
      "Ġimportance": 2997,
      "Ġfather": 2998,
      "Ġinvestig": 2999,
      "Ġtri": 3000,
      "Ġactivity": 3001,
      "Ġaspects": 3002,
      "ĠYour": 3003,
      "Ġfilms": 3004,
      "Ġmechan": 3005,
      "nam": 3006,
      "rown": 3007,
      "Ġcit": 3008,
      "Ġfish": 3009,
      "rage": 3010,
      "ama": 3011,
      "Ġrate": 3012,
      "Ġguid": 3013,
      "Ġdyn": 3014,
      "hens": 3015,
      "oint": 3016,
      "Ġremains": 3017,
      "Ġwhole": 3018,
      "Ġsources": 3019,
      "Ġterms": 3020,
      "ciples": 3021,
      "ĊĠ": 3022,
      "ĠOver": 3023,
      "Ġfa": 3024,
      "Ġfascinating": 3025,
      "Ġmovement": 3026,
      "Ġidentify": 3027,
      "ĠAir": 3028,
      "By": 3029,
      "unicip": 3030,
      "Ġeffective": 3031,
      "Ġ2013": 3032,
      "rote": 3033,
      "Ġtrue": 3034,
      "aged": 3035,
      "use": 3036,
      "Ġdecision": 3037,
      "Ġcontext": 3038,
      "Ġhon": 3039,
      "off": 3040,
      "ĠDist": 3041,
      "Ġstructure": 3042,
      "Ġsense": 3043,
      "Ġmatter": 3044,
      "Ġability": 3045,
      "Ġtelevision": 3046,
      "ancing": 3047,
      "ĠMich": 3048,
      "Ġextra": 3049,
      "Ġagre": 3050,
      "uth": 3051,
      "mar": 3052,
      "ricult": 3053,
      "Ġinj": 3054,
      "When": 3055,
      "But": 3056,
      "Ġaccept": 3057,
      "Ġreact": 3058,
      "Ġansw": 3059,
      "Ġincludes": 3060,
      "ĠCenter": 3061,
      "ĠMy": 3062,
      "Ġprofessional": 3063,
      "ett": 3064,
      "Ġones": 3065,
      "Ġplaying": 3066,
      "Ġreally": 3067,
      "Ġpict": 3068,
      "Ġbase": 3069,
      "ky": 3070,
      "Ġpowerful": 3071,
      "onse": 3072,
      "Ġmale": 3073,
      "Ġprimary": 3074,
      "time": 3075,
      "Ġnut": 3076,
      "ha": 3077,
      "Ġfavor": 3078,
      "Ġrelationships": 3079,
      "Ġstudent": 3080,
      "ĠAnt": 3081,
      "Ġgreen": 3082,
      "Ġcele": 3083,
      "Ġrecent": 3084,
      "ĠSer": 3085,
      "Ġsett": 3086,
      "Ġprogress": 3087,
      "astic": 3088,
      "nown": 3089,
      "Ġthreat": 3090,
      "Ġsuccessful": 3091,
      "Ġtakes": 3092,
      "su": 3093,
      "Ġindustry": 3094,
      "ĠResearch": 3095,
      "ĠRem": 3096,
      "ython": 3097,
      "AR": 3098,
      "ĠAustralia": 3099,
      "agement": 3100,
      "Ġexerc": 3101,
      "Ġinterp": 3102,
      "Ġap": 3103,
      "Ġsil": 3104,
      "Ġoffers": 3105,
      "ceed": 3106,
      "Ġmove": 3107,
      "mon": 3108,
      "eper": 3109,
      "Ġancient": 3110,
      "fort": 3111,
      "ĠFirst": 3112,
      "Ġsuff": 3113,
      "Ġlost": 3114,
      "ald": 3115,
      "Ġplayer": 3116,
      "Ġ2003": 3117,
      "Ġrelated": 3118,
      "Ġgreater": 3119,
      "Ġinside": 3120,
      "ĠAfrican": 3121,
      "ira": 3122,
      "Ġsource": 3123,
      "Ġspirit": 3124,
      "back": 3125,
      "rast": 3126,
      "phas": 3127,
      "ously": 3128,
      "Ġlog": 3129,
      "Ġnovel": 3130,
      "ĠWell": 3131,
      "Ġconce": 3132,
      "illing": 3133,
      "umn": 3134,
      "Ġmiss": 3135,
      "asons": 3136,
      "enge": 3137,
      "Ġparents": 3138,
      "ĠUnderstanding": 3139,
      "oyal": 3140,
      "Ġ/": 3141,
      "Ġsection": 3142,
      "Ġpositive": 3143,
      "ĠRed": 3144,
      "oration": 3145,
      "Ġscientists": 3146,
      "ashington": 3147,
      "anish": 3148,
      "Ġ50": 3149,
      "Ġmoved": 3150,
      "Ġuses": 3151,
      "Ġhimself": 3152,
      "Ġshared": 3153,
      "Ġcompl": 3154,
      "field": 3155,
      "Ġactually": 3156,
      "Ġvo": 3157,
      "Ġvisual": 3158,
      "omb": 3159,
      "Ġremain": 3160,
      "alls": 3161,
      "Ġstri": 3162,
      "Ġbecomes": 3163,
      "ufact": 3164,
      "ĠPat": 3165,
      "hing": 3166,
      "ought": 3167,
      "Ġbirths": 3168,
      "Ġcompanies": 3169,
      "lymp": 3170,
      "Ġgradu": 3171,
      "Ġtax": 3172,
      "ĠCommun": 3173,
      "Ġencourag": 3174,
      "Ġalmost": 3175,
      "anc": 3176,
      "Ġhumans": 3177,
      "itch": 3178,
      "yp": 3179,
      "Ġpressure": 3180,
      "Ġec": 3181,
      "ension": 3182,
      "Ġdoing": 3183,
      "ander": 3184,
      "ĠLa": 3185,
      "Ġdecided": 3186,
      "Ġenter": 3187,
      "Ġnavig": 3188,
      "Ġcool": 3189,
      "ulated": 3190,
      "Ġwild": 3191,
      "Ġwriting": 3192,
      "Ġdone": 3193,
      "iter": 3194,
      "ifically": 3195,
      "At": 3196,
      "Ġconstit": 3197,
      "Ġbound": 3198,
      "ĠTrans": 3199,
      "Ġattack": 3200,
      "ĠVal": 3201,
      "Ġproviding": 3202,
      "Ġstructures": 3203,
      "Ġneigh": 3204,
      "Ġsubst": 3205,
      "Ġforces": 3206,
      "oe": 3207,
      "Ġ189": 3208,
      "Ġ2001": 3209,
      "ĠMor": 3210,
      "Ġvict": 3211,
      "Ġdrug": 3212,
      "Ġmother": 3213,
      "ĠServ": 3214,
      "opp": 3215,
      "rol": 3216,
      "Ġcou": 3217,
      "Ġinfluence": 3218,
      "itation": 3219,
      "Ġconflic": 3220,
      "Ġfinancial": 3221,
      "Ar": 3222,
      "Ġnumbers": 3223,
      "Ġfamilies": 3224,
      "Ġ2002": 3225,
      "Ġproduce": 3226,
      "ĠRoman": 3227,
      "iff": 3228,
      "Ġrelationship": 3229,
      "Ġhours": 3230,
      "ĠChina": 3231,
      "Ġconnections": 3232,
      "Ġinvolves": 3233,
      "anks": 3234,
      "arian": 3235,
      "Ġnight": 3236,
      "Ġnumerous": 3237,
      "Ġcustom": 3238,
      "Ġreported": 3239,
      "Ġplat": 3240,
      "ean": 3241,
      "Ġphil": 3242,
      "Ġregarding": 3243,
      "ĠâĢĺ": 3244,
      "ĠHol": 3245,
      "Ġfight": 3246,
      "cast": 3247,
      "Ġwhose": 3248,
      "Ġdigital": 3249,
      "If": 3250,
      "Ġforce": 3251,
      "Ġsafety": 3252,
      "Ġavoid": 3253,
      "So": 3254,
      "Ġmeasure": 3255,
      "Ġsymb": 3256,
      "Ġbelief": 3257,
      "Ġbelow": 3258,
      "Ġbenefits": 3259,
      "ĠCoun": 3260,
      "ĠDiv": 3261,
      "Ġexact": 3262,
      "odes": 3263,
      "Ġcode": 3264,
      "year": 3265,
      "ĠStre": 3266,
      "Ġmid": 3267,
      "Ġinsights": 3268,
      "Ġsect": 3269,
      "Ġtheory": 3270,
      "Ġjud": 3271,
      "odies": 3272,
      "Ġtal": 3273,
      "ĠTechn": 3274,
      "ville": 3275,
      "ĠGreat": 3276,
      "Ġtransport": 3277,
      "oud": 3278,
      "rapy": 3279,
      "Ġgrowing": 3280,
      "Ġamount": 3281,
      "Ġten": 3282,
      "Ġissue": 3283,
      "Ġideas": 3284,
      "ari": 3285,
      "Ġadded": 3286,
      "Ġcat": 3287,
      "Ġprinciples": 3288,
      "ĠMany": 3289,
      "Ġadop": 3290,
      "Ġspread": 3291,
      "Ġworked": 3292,
      "Ġsmo": 3293,
      "Ġaverage": 3294,
      "vention": 3295,
      "Ġrock": 3296,
      "Ġcontribute": 3297,
      "24": 3298,
      "Ġdaily": 3299,
      "ĠBu": 3300,
      "ĠPress": 3301,
      "ties": 3302,
      "icine": 3303,
      "idents": 3304,
      "Ġthr": 3305,
      "ourse": 3306,
      "Ġsurrounding": 3307,
      "ĠMr": 3308,
      "Ġshape": 3309,
      "ĠSoci": 3310,
      "Ġassess": 3311,
      "Ġund": 3312,
      "Ġconvers": 3313,
      "Ġder": 3314,
      "Ġhor": 3315,
      "Ġdou": 3316,
      "Ġadditional": 3317,
      "ĠCor": 3318,
      "lear": 3319,
      "Ġreduce": 3320,
      "Ġvillage": 3321,
      "Ġarchitect": 3322,
      "Ġgoal": 3323,
      "lection": 3324,
      "acter": 3325,
      "Ġsoon": 3326,
      "Ġresponsible": 3327,
      "Ġadj": 3328,
      "Ġsoil": 3329,
      "rect": 3330,
      "Ġpolicy": 3331,
      "Ġsustain": 3332,
      "Ġmicro": 3333,
      "ĠDon": 3334,
      "Ġartists": 3335,
      "Ġlearned": 3336,
      "Ġorganizations": 3337,
      "iece": 3338,
      "Ġforest": 3339,
      "Ġgas": 3340,
      "ĠGovern": 3341,
      "Ġwrote": 3342,
      "Ġ21": 3343,
      "Ġstrugg": 3344,
      "Ġacqu": 3345,
      "Ġwa": 3346,
      "Ġsimply": 3347,
      "omet": 3348,
      "Ġprote": 3349,
      "Ġclean": 3350,
      "Ġimprove": 3351,
      "Ġprocesses": 3352,
      "Ġalthough": 3353,
      "//": 3354,
      "ĠNot": 3355,
      "Ġliterature": 3356,
      "cles": 3357,
      "Ġcompared": 3358,
      "Ġaware": 3359,
      "Ġmount": 3360,
      "ĠMex": 3361,
      "iful": 3362,
      "ĠVir": 3363,
      "Ġfram": 3364,
      "Ġult": 3365,
      "Ġplaces": 3366,
      "uries": 3367,
      "izes": 3368,
      "Ġvisit": 3369,
      "Ġstandard": 3370,
      "ĠFrance": 3371,
      "Ġprep": 3372,
      "ĠMod": 3373,
      "ĠPresident": 3374,
      "pper": 3375,
      "Ġactive": 3376,
      "Ġstyle": 3377,
      "ying": 3378,
      "Ġsaw": 3379,
      "ĠWashington": 3380,
      "Ġwood": 3381,
      "oul": 3382,
      "Ġimage": 3383,
      "ĠDepartment": 3384,
      "Ġcannot": 3385,
      "Ġadapt": 3386,
      "Ġfeed": 3387,
      "Ġbird": 3388,
      "Ġsympt": 3389,
      "Ġvia": 3390,
      "Ġserve": 3391,
      "Imagine": 3392,
      "rest": 3393,
      "Ġ2014": 3394,
      "Ġdocument": 3395,
      "care": 3396,
      "Ġtalk": 3397,
      "ronic": 3398,
      "Ġeverything": 3399,
      "Ġhous": 3400,
      "Ġexec": 3401,
      "Ġwarm": 3402,
      "isms": 3403,
      "Ġbrought": 3404,
      "wide": 3405,
      "Ġlines": 3406,
      "fl": 3407,
      "men": 3408,
      "ĠSch": 3409,
      "aint": 3410,
      "ĠAssociation": 3411,
      "Ġstress": 3412,
      "ĠJames": 3413,
      "aur": 3414,
      "Ġdeveloping": 3415,
      "Ġdive": 3416,
      "ength": 3417,
      "Ġrecomm": 3418,
      "Ġlarger": 3419,
      "Ġannoun": 3420,
      "Ġresponse": 3421,
      "ĠAfrica": 3422,
      "Ġcalc": 3423,
      "Ġemphas": 3424,
      "Ġded": 3425,
      "olve": 3426,
      "Ġnetwork": 3427,
      "ĠCup": 3428,
      "pid": 3429,
      "elcome": 3430,
      "Ġdesp": 3431,
      "Ġlonger": 3432,
      "Ġintegr": 3433,
      "igenous": 3434,
      "Ġ186": 3435,
      "Ġx": 3436,
      "Ġearlier": 3437,
      "Ġmental": 3438,
      "Ġrules": 3439,
      "ER": 3440,
      "ĠScience": 3441,
      "Ġvoc": 3442,
      "rab": 3443,
      "airs": 3444,
      "Ġadvent": 3445,
      "ÃŃ": 3446,
      "Ġdescribed": 3447,
      "Ġallowing": 3448,
      "ĠEduc": 3449,
      "Ġlegal": 3450,
      "uman": 3451,
      "rael": 3452,
      "Ġthinking": 3453,
      "Ġlived": 3454,
      "Ġtrack": 3455,
      "Ġdistrict": 3456,
      "ĠAlthough": 3457,
      "osis": 3458,
      "After": 3459,
      "Ġsus": 3460,
      "ĠPaul": 3461,
      "omas": 3462,
      "ĠUnion": 3463,
      "Ġcaused": 3464,
      "://": 3465,
      "Ġapprop": 3466,
      "'ve": 3467,
      "Ġcentral": 3468,
      "Ġful": 3469,
      "Ġlandsc": 3470,
      "aign": 3471,
      "Ġquickly": 3472,
      "ĠChampions": 3473,
      "ĠLaw": 3474,
      "Ġfront": 3475,
      "Ġhar": 3476,
      "ception": 3477,
      "urt": 3478,
      "ĠPort": 3479,
      "ĠBlack": 3480,
      "ĊĠĠĠ": 3481,
      "ĠTheir": 3482,
      "IV": 3483,
      "Ġidentity": 3484,
      "ĠSam": 3485,
      "ĠPal": 3486,
      "olving": 3487,
      "Ġasked": 3488,
      "Ġconstruct": 3489,
      "ĠCong": 3490,
      "udd": 3491,
      "Ġfollowed": 3492,
      "Ġscientific": 3493,
      "ingu": 3494,
      "Ġcomplete": 3495,
      "Ġlo": 3496,
      "isl": 3497,
      "Ġdynam": 3498,
      "Ġgoals": 3499,
      "ĠGeorge": 3500,
      "ĠToday": 3501,
      "ĠNow": 3502,
      "Ġrequires": 3503,
      "Ġtarget": 3504,
      "Ġimpl": 3505,
      "ĠInstitute": 3506,
      "ael": 3507,
      "Ġchurch": 3508,
      "Ġevalu": 3509,
      "Ġ23": 3510,
      "ĠRober": 3511,
      "ula": 3512,
      "ridge": 3513,
      "40": 3514,
      "irm": 3515,
      "Ġdiscovered": 3516,
      "Ġwebsite": 3517,
      "ida": 3518,
      "resh": 3519,
      "Ġ--": 3520,
      "Ġsociet": 3521,
      "Ġmanufact": 3522,
      "eed": 3523,
      "Ġapplications": 3524,
      "Ġweight": 3525,
      "ĠHistory": 3526,
      "ĠGeneral": 3527,
      "Ġoptim": 3528,
      "ĠBra": 3529,
      "life": 3530,
      "Ġtransl": 3531,
      "Ġimagine": 3532,
      "Ġcolon": 3533,
      "ĠGermany": 3534,
      "ĠKe": 3535,
      "Ġelse": 3536,
      "ĠAlex": 3537,
      "Ġdeeper": 3538,
      "atively": 3539,
      "Ġrich": 3540,
      "Ġformed": 3541,
      "zz": 3542,
      "Ġprivate": 3543,
      "Ġmention": 3544,
      "used": 3545,
      "Ġcontinu": 3546,
      "nection": 3547,
      "Ġ+": 3548,
      "Ġfair": 3549,
      "Ġveg": 3550,
      "ĠRich": 3551,
      "iny": 3552,
      "haps": 3553,
      "gar": 3554,
      "eared": 3555,
      "Ġplatform": 3556,
      "itude": 3557,
      "Ġtrust": 3558,
      "Ġadminist": 3559,
      "ĠCour": 3560,
      "Ġdeliver": 3561,
      "Ġthus": 3562,
      "Ġ188": 3563,
      "espite": 3564,
      "Ġphilos": 3565,
      "Ġcontain": 3566,
      "Ġbirth": 3567,
      "acc": 3568,
      "ether": 3569,
      "Ġsports": 3570,
      "Ġcontract": 3571,
      "Ġrelev": 3572,
      "Ġhealthy": 3573,
      "Ġ*": 3574,
      "lim": 3575,
      "Ġrob": 3576,
      "Ġexpand": 3577,
      "Ġalign": 3578,
      "Ġconstruction": 3579,
      "Ġstage": 3580,
      "Ġlif": 3581,
      "ĠUs": 3582,
      "Ġcitiz": 3583,
      "ĠDavid": 3584,
      "Ġmagn": 3585,
      "raw": 3586,
      "craft": 3587,
      "Ġbelieve": 3588,
      "ania": 3589,
      "Ġgain": 3590,
      "ĠTex": 3591,
      "ĠQue": 3592,
      "itable": 3593,
      "Ġheat": 3594,
      "Ġrail": 3595,
      "me": 3596,
      "Ġcomponents": 3597,
      "ĠCath": 3598,
      "ellig": 3599,
      "aughter": 3600,
      "Ġcontact": 3601,
      "ounts": 3602,
      "Ġattempt": 3603,
      "Ġtitle": 3604,
      "bl": 3605,
      "istry": 3606,
      "Ġcapital": 3607,
      "Ġhands": 3608,
      "Ġsignificantly": 3609,
      "iec": 3610,
      "ĠFurther": 3611,
      "ĠÂ": 3612,
      "inn": 3613,
      "Ġ22": 3614,
      "ago": 3615,
      "Ġprojects": 3616,
      "inese": 3617,
      "Ġscen": 3618,
      "Ġprior": 3619,
      "Ġcenter": 3620,
      "?\"": 3621,
      "ĠAdditionally": 3622,
      "Ġsafe": 3623,
      "que": 3624,
      "Ġplays": 3625,
      "mercial": 3626,
      "ĠBel": 3627,
      "ĠOther": 3628,
      "Ġround": 3629,
      "Ġdoesn": 3630,
      "Ġappl": 3631,
      "leep": 3632,
      "aker": 3633,
      "Ġarticle": 3634,
      "Ġschol": 3635,
      "Ġimmedi": 3636,
      "gy": 3637,
      "Let": 3638,
      "ĠArmy": 3639,
      "Ġlink": 3640,
      "CA": 3641,
      "Ġcondition": 3642,
      "ĠDis": 3643,
      "ĠDes": 3644,
      "Ġbasic": 3645,
      "ĠInst": 3646,
      "ests": 3647,
      "Ġconcerns": 3648,
      "Ġheard": 3649,
      "Ġrace": 3650,
      "ĠRepublic": 3651,
      "ĠNav": 3652,
      "bert": 3653,
      "Ġchemical": 3654,
      "Ã¼": 3655,
      "ĠEach": 3656,
      "equ": 3657,
      "History": 3658,
      "aid": 3659,
      "ĠWestern": 3660,
      "itz": 3661,
      "Ġlabor": 3662,
      "ĠCouncil": 3663,
      "ĠLou": 3664,
      "Ġlimited": 3665,
      "Ġinstall": 3666,
      "Ġtemperature": 3667,
      "Ġfru": 3668,
      "Ġreturned": 3669,
      "Ġsteps": 3670,
      "Ġslow": 3671,
      "Ġang": 3672,
      "Ġ40": 3673,
      "Ġqual": 3674,
      "ams": 3675,
      "uge": 3676,
      "|-": 3677,
      "Ġmodels": 3678,
      "Ġago": 3679,
      "ĠSociety": 3680,
      "inc": 3681,
      "Ġsymptoms": 3682,
      "Ġthous": 3683,
      "Ġsn": 3684,
      "Ġ1990": 3685,
      "Ġsea": 3686,
      "Ġ26": 3687,
      "ĠMal": 3688,
      "ros": 3689,
      "Ġ1999": 3690,
      "aught": 3691,
      "Ġ#": 3692,
      "BC": 3693,
      "Ġmer": 3694,
      "wood": 3695,
      "Ġpoll": 3696,
      "roll": 3697,
      "Ġeventually": 3698,
      "ĠOlymp": 3699,
      "Ġcred": 3700,
      "Pe": 3701,
      "ĠChe": 3702,
      "Ġopened": 3703,
      "ĠMary": 3704,
      "Ġ28": 3705,
      "urban": 3706,
      "Ġcontent": 3707,
      "Ġcelebr": 3708,
      "ĠStreet": 3709,
      "Ġextrem": 3710,
      "Ġconcepts": 3711,
      "Ġroom": 3712,
      "Ġskin": 3713,
      "Ġapprox": 3714,
      "Ġrelease": 3715,
      "Ġ27": 3716,
      "ĠGreen": 3717,
      "ĠArch": 3718,
      "ounds": 3719,
      "amples": 3720,
      "ĠDevelop": 3721,
      "akers": 3722,
      "28": 3723,
      "ias": 3724,
      "unch": 3725,
      "Ġi": 3726,
      "Ġearth": 3727,
      "Ġgenerally": 3728,
      "27": 3729,
      "bit": 3730,
      "eck": 3731,
      "Ġgold": 3732,
      "Ġmaster": 3733,
      "Ġlack": 3734,
      "ĠĠĠĠĠĠĠĠ": 3735,
      "omy": 3736,
      "Ġdistinct": 3737,
      "Ġice": 3738,
      "Ġshown": 3739,
      "Ġacadem": 3740,
      "Ã³": 3741,
      "Ġtrade": 3742,
      "Ġpoor": 3743,
      "cean": 3744,
      "term": 3745,
      "where": 3746,
      "Ġcast": 3747,
      "Ġchallenge": 3748,
      "Ġmis": 3749,
      "otes": 3750,
      "Ġsequ": 3751,
      "Ġveh": 3752,
      "Be": 3753,
      "roy": 3754,
      "Ġfilled": 3755,
      "Ġhot": 3756,
      "ĠDistrict": 3757,
      "ĠIsrael": 3758,
      "Ġtrying": 3759,
      "Ġelectric": 3760,
      "Ġfit": 3761,
      "Ġinstr": 3762,
      "Ġbeautiful": 3763,
      "hemat": 3764,
      "ancy": 3765,
      "era": 3766,
      "orders": 3767,
      "Ġiniti": 3768,
      "Ġisn": 3769,
      "Ġoperations": 3770,
      "ĠOf": 3771,
      "ĠHistor": 3772,
      "ston": 3773,
      "Ġmunicip": 3774,
      "Ġdespite": 3775,
      "Ġanimal": 3776,
      "ny": 3777,
      "known": 3778,
      "26": 3779,
      "ij": 3780,
      "Ġgot": 3781,
      "ĠSl": 3782,
      "alian": 3783,
      "Ġradio": 3784,
      "ES": 3785,
      "orial": 3786,
      "ĠAccording": 3787,
      "ĠJapanese": 3788,
      "Ġpen": 3789,
      "Ġcourt": 3790,
      "ipment": 3791,
      "ID": 3792,
      "Ġden": 3793,
      "29": 3794,
      "Ġexhib": 3795,
      "Ġrapid": 3796,
      "Ġpresident": 3797,
      "inate": 3798,
      "osure": 3799,
      "Ġcompre": 3800,
      "Ġhol": 3801,
      "Ġeight": 3802,
      "Ġreach": 3803,
      "Ġdiagn": 3804,
      "Ġsecurity": 3805,
      "Ġimages": 3806,
      "Ġexperien": 3807,
      "Ġbrother": 3808,
      "Ġlooking": 3809,
      "ĠGra": 3810,
      "ieces": 3811,
      "athy": 3812,
      "ĠIsland": 3813,
      "Ġconclusion": 3814,
      "rack": 3815,
      "Ġdamage": 3816,
      "iency": 3817,
      "Ġnews": 3818,
      "Ġperfect": 3819,
      "Ġdisp": 3820,
      "Ġepis": 3821,
      "Ġsearch": 3822,
      "Ġsharing": 3823,
      "encies": 3824,
      "Ġsal": 3825,
      "Ġcollection": 3826,
      "Ġetc": 3827,
      "Ġobjects": 3828,
      "Ġfamous": 3829,
      "Ġtrib": 3830,
      "mission": 3831,
      "ils": 3832,
      "Ġing": 3833,
      "Ġ187": 3834,
      "Ġestim": 3835,
      "ĠDo": 3836,
      "Ġbackground": 3837,
      "Ġlocation": 3838,
      "Ġhom": 3839,
      "Ġassist": 3840,
      "ĠSystem": 3841,
      "ĠSpec": 3842,
      "ospital": 3843,
      "Ġpromote": 3844,
      "Ġproperty": 3845,
      "Ġactions": 3846,
      "ocrat": 3847,
      "195": 3848,
      "Ġlaws": 3849,
      "AT": 3850,
      "hors": 3851,
      "ding": 3852,
      "Ġparty": 3853,
      "Ġbeginning": 3854,
      "see": 3855,
      "ears": 3856,
      "ĠJewish": 3857,
      "antic": 3858,
      "unt": 3859,
      "Ġdifferences": 3860,
      "change": 3861,
      "Ġpredict": 3862,
      "Ġrefers": 3863,
      "Ġvirt": 3864,
      "Ġnation": 3865,
      "ttp": 3866,
      "Ġgirl": 3867,
      "Ġgard": 3868,
      "Ġoccup": 3869,
      "iding": 3870,
      "Ġgraph": 3871,
      "Ġbuildings": 3872,
      "Ġdial": 3873,
      "Ġcoast": 3874,
      "Ġlargest": 3875,
      "Ġcateg": 3876,
      "Ġorganization": 3877,
      "ĠMart": 3878,
      "Ġdeaths": 3879,
      "ki": 3880,
      "ĠBer": 3881,
      "axim": 3882,
      "owers": 3883,
      "fess": 3884,
      "Ġlot": 3885,
      "Ġscreen": 3886,
      "Ġ1998": 3887,
      "IS": 3888,
      "olk": 3889,
      "Ġallowed": 3890,
      "Ġfeet": 3891,
      "You": 3892,
      "Ġpack": 3893,
      "Ġtypically": 3894,
      "ĠProg": 3895,
      "Ġtransfer": 3896,
      "Ġspecifically": 3897,
      "Ġcorn": 3898,
      "ĠLat": 3899,
      "Ġwanted": 3900,
      "Ġcapac": 3901,
      "Ġpage": 3902,
      "ĠIts": 3903,
      "Ġoffice": 3904,
      "sequently": 3905,
      "Ġagricult": 3906,
      "Ġcarry": 3907,
      "Ġcampaign": 3908,
      "org": 3909,
      "Ġgave": 3910,
      "Ġfemale": 3911,
      "ĠTexas": 3912,
      "ĠChinese": 3913,
      "Ġren": 3914,
      "ĠTur": 3915,
      "ĠDay": 3916,
      "ĠMount": 3917,
      "berg": 3918,
      "Ġquant": 3919,
      "Ġensuring": 3920,
      "rian": 3921,
      "ĠGo": 3922,
      "going": 3923,
      "Ġminutes": 3924,
      "ya": 3925,
      "IN": 3926,
      "Ġveget": 3927,
      "ĠDem": 3928,
      "leg": 3929,
      ");": 3930,
      "ees": 3931,
      "ription": 3932,
      "Ad": 3933,
      "room": 3934,
      "rief": 3935,
      "ocks": 3936,
      "thlet": 3937,
      "And": 3938,
      "ĠImagine": 3939,
      "Ġir": 3940,
      "rant": 3941,
      "Ġtou": 3942,
      "ĠCourt": 3943,
      "Ġtable": 3944,
      "Ġking": 3945,
      "Ġhope": 3946,
      "ĠMat": 3947,
      "Ġsoftware": 3948,
      "Ġnormal": 3949,
      "ĠMark": 3950,
      "ĠMiss": 3951,
      "Ġdetect": 3952,
      "ĠSen": 3953,
      "Ġthing": 3954,
      "wise": 3955,
      "Ġgetting": 3956,
      "Ġbalance": 3957,
      "ĠUnit": 3958,
      "Ġeasy": 3959,
      "Ġimag": 3960,
      "lor": 3961,
      "vest": 3962,
      "Ġpeace": 3963,
      "Ġforward": 3964,
      "Ġfat": 3965,
      "ĠJes": 3966,
      "Ġrates": 3967,
      "Ġquite": 3968,
      "vert": 3969,
      "Ġsmaller": 3970,
      "Ġball": 3971,
      "nel": 3972,
      "Sc": 3973,
      "ĠJour": 3974,
      "ternet": 3975,
      "Ġtoward": 3976,
      "ician": 3977,
      "tee": 3978,
      "Ġtree": 3979,
      "Ġbecoming": 3980,
      "Ġinitial": 3981,
      "Ġmut": 3982,
      "Ġmatch": 3983,
      "ĠRoad": 3984,
      "Ġ2015": 3985,
      "pped": 3986,
      "Ġpurch": 3987,
      "bre": 3988,
      "Ġjournal": 3989,
      "Ġsongs": 3990,
      "ĠMost": 3991,
      "Ġconcent": 3992,
      "Ġdemand": 3993,
      "ĠAustralian": 3994,
      "Ġcultures": 3995,
      "Ġappeared": 3996,
      "Ġexactly": 3997,
      "Ġsem": 3998,
      "ĠHen": 3999,
      "Ġdirectly": 4000,
      "Ġdram": 4001,
      "Ġsummer": 4002,
      "iliar": 4003,
      "Ġhabit": 4004,
      "Ġdog": 4005,
      "Ġbelong": 4006,
      "Ġintroduced": 4007,
      "Ġwide": 4008,
      "ipl": 4009,
      "Ġengaging": 4010,
      "Ġreaders": 4011,
      "Ġeffectively": 4012,
      "Ġcomplet": 4013,
      "ĠCur": 4014,
      "Pro": 4015,
      "Ġhyd": 4016,
      "Ġcontains": 4017,
      "itar": 4018,
      "astern": 4019,
      "Ġjoined": 4020,
      "ports": 4021,
      "undred": 4022,
      "works": 4023,
      "Ġconnection": 4024,
      "Ġteams": 4025,
      "Ġbox": 4026,
      "Ġboard": 4027,
      "Ġdefin": 4028,
      "Sh": 4029,
      "ĠTV": 4030,
      "nes": 4031,
      "Ġdefe": 4032,
      "Pl": 4033,
      "igned": 4034,
      "ĠVol": 4035,
      "Ġvariety": 4036,
      "Int": 4037,
      "Ġcand": 4038,
      "Ġcommercial": 4039,
      "Ġfunctions": 4040,
      "Ġlength": 4041,
      "Ġtrees": 4042,
      "Ġpossess": 4043,
      "ĠEducation": 4044,
      "Ġcompleted": 4045,
      "olit": 4046,
      "abilities": 4047,
      "Ġcorrect": 4048,
      "och": 4049,
      "Ġ1980": 4050,
      "ĠHall": 4051,
      "itage": 4052,
      "Ġappropriate": 4053,
      "Ġdark": 4054,
      "Ġobtain": 4055,
      "Ġpassed": 4056,
      "ĠBay": 4057,
      "ĠAre": 4058,
      "olec": 4059,
      "194": 4060,
      "Ġcore": 4061,
      "ares": 4062,
      "Ġcommand": 4063,
      "uff": 4064,
      "ĠCanadian": 4065,
      "Ġeyes": 4066,
      "imens": 4067,
      "Ġdevices": 4068,
      "Ġeast": 4069,
      "icians": 4070,
      "aters": 4071,
      "Ġpiece": 4072,
      "Ġaward": 4073,
      "ĠĊĠĊ": 4074,
      "People": 4075,
      "Cl": 4076,
      "Ġtold": 4077,
      "Ġrecorded": 4078,
      "water": 4079,
      "Ġworkers": 4080,
      "Ġmission": 4081,
      "Ġast": 4082,
      "Ġremained": 4083,
      "ifying": 4084,
      "Ġdecisions": 4085,
      "Ġitems": 4086,
      "edom": 4087,
      "Ġchanged": 4088,
      "Ġembra": 4089,
      "ĠCompany": 4090,
      "urning": 4091,
      "Ġriver": 4092,
      "set": 4093,
      "Ġautom": 4094,
      "Ġwest": 4095,
      "elines": 4096,
      "Ġbra": 4097,
      "Ġgender": 4098,
      "Ġcard": 4099,
      "utive": 4100,
      "Ġrespond": 4101,
      "ĠParty": 4102,
      "Ġesc": 4103,
      "ĠGroup": 4104,
      "Ġmonth": 4105,
      "Ġcitizens": 4106,
      "ĠNor": 4107,
      "Welcome": 4108,
      "iance": 4109,
      "Ġalternative": 4110,
      "Ġ:": 4111,
      "Ġfederal": 4112,
      "Ġapplication": 4113,
      "Ġstatus": 4114,
      "Ġdidn": 4115,
      "Ġdirector": 4116,
      "Ġplaced": 4117,
      "ĠSum": 4118,
      "Ġplanning": 4119,
      "Ġmill": 4120,
      "ĠThomas": 4121,
      "ĠFurthermore": 4122,
      "Ġspeed": 4123,
      "Ġkids": 4124,
      "ĠDef": 4125,
      "yd": 4126,
      "Ġnarrat": 4127,
      "Ġprobably": 4128,
      "can": 4129,
      "ranch": 4130,
      "Ġcarbon": 4131,
      "Ġreveal": 4132,
      "Ġsites": 4133,
      "west": 4134,
      "Ġcauses": 4135,
      "ĠOur": 4136,
      "Ġdelve": 4137,
      "ka": 4138,
      "Ġterrit": 4139,
      "Ġ29": 4140,
      "Ġmemory": 4141,
      "ĠCatholic": 4142,
      "Ġeye": 4143,
      "Ġfresh": 4144,
      "oma": 4145,
      "Ġfelt": 4146,
      "ĠRobert": 4147,
      "Ġonto": 4148,
      "iced": 4149,
      "Ġhelped": 4150,
      "Ġpolicies": 4151,
      "Ġpatient": 4152,
      "Ġlanguages": 4153,
      "Ġprofession": 4154,
      "ĠLeg": 4155,
      "Ġexamples": 4156,
      "Ġrunning": 4157,
      "ras": 4158,
      "burg": 4159,
      "ĠAward": 4160,
      "ĠÃ": 4161,
      "olved": 4162,
      "Ġwoman": 4163,
      "Ġnuc": 4164,
      "Ġsituation": 4165,
      "Ġfaith": 4166,
      "Ġbusinesses": 4167,
      "road": 4168,
      "Ġindic": 4169,
      "Ġteaching": 4170,
      "Ġserious": 4171,
      "Ġdisplay": 4172,
      "resp": 4173,
      "Ġtim": 4174,
      "ĠCap": 4175,
      "Ġexisting": 4176,
      "Ġturned": 4177,
      "ĠBen": 4178,
      "Ġequipment": 4179,
      "ĠCongress": 4180,
      "ĠCentral": 4181,
      "Ġmiddle": 4182,
      "range": 4183,
      "Ġcheck": 4184,
      "Ġweeks": 4185,
      "amin": 4186,
      "--------------------------------": 4187,
      "Ġcontroll": 4188,
      "Ġprotection": 4189,
      "board": 4190,
      "formation": 4191,
      "ĠProv": 4192,
      "Ġple": 4193,
      "etry": 4194,
      "ux": 4195,
      "Ġbreat": 4196,
      "house": 4197,
      "Ġadvoc": 4198,
      "anging": 4199,
      "ĠEv": 4200,
      "Ġpan": 4201,
      "Ġadvance": 4202,
      "olf": 4203,
      "Ġeasily": 4204,
      "Ġprinc": 4205,
      "ĠSur": 4206,
      "Ġcollege": 4207,
      "Ġsexual": 4208,
      "enced": 4209,
      "ĠVirgin": 4210,
      "Ġseven": 4211,
      "Ġord": 4212,
      "rans": 4213,
      "Ġfiction": 4214,
      "ĠFlor": 4215,
      "Ġteachers": 4216,
      "ĠExpl": 4217,
      "Ġproced": 4218,
      "Ġillustr": 4219,
      "Ġdang": 4220,
      "Ġmarried": 4221,
      "Ġnearly": 4222,
      "ĠSal": 4223,
      "ste": 4224,
      "Ġauthors": 4225,
      "ĠMoreover": 4226,
      "ĠSpanish": 4227,
      "ĠOff": 4228,
      "Ġmoment": 4229,
      "ĠMac": 4230,
      "Ġmaintaining": 4231,
      "Ġannounced": 4232,
      "Ġfostering": 4233,
      "pre": 4234,
      "Ġforeign": 4235,
      "asion": 4236,
      "AS": 4237,
      "ĠMuseum": 4238,
      "Ġperformed": 4239,
      "Ġtechnologies": 4240,
      "Ġ1997": 4241,
      "Ġstaff": 4242,
      "Ġbodies": 4243,
      "Ġconv": 4244,
      "Ġclin": 4245,
      "Ġdifference": 4246,
      "ĠIr": 4247,
      "Ġsolutions": 4248,
      "ĠInc": 4249,
      "Ġnames": 4250,
      "ĠSom": 4251,
      "ĠPeople": 4252,
      "ĠAcadem": 4253,
      "ogue": 4254,
      "Ġefficient": 4255,
      "Ġbeg": 4256,
      "Ġ2016": 4257,
      "Ġdistribution": 4258,
      "Ġgrand": 4259,
      "ĠMet": 4260,
      "force": 4261,
      "With": 4262,
      "Ġcosts": 4263,
      "Ġimprov": 4264,
      "Ġpromoting": 4265,
      "Ġfast": 4266,
      "Ġtrend": 4267,
      "ĠChild": 4268,
      "Ġpieces": 4269,
      "usion": 4270,
      "oke": 4271,
      "Ġcities": 4272,
      "rong": 4273,
      "Ġlessons": 4274,
      "Ġurban": 4275,
      "Ph": 4276,
      "Ġ1996": 4277,
      "gor": 4278,
      "Ġattract": 4279,
      "hest": 4280,
      "inter": 4281,
      "acing": 4282,
      "ĠPublic": 4283,
      "Ġwife": 4284,
      "ero": 4285,
      "Ġreb": 4286,
      "idge": 4287,
      "Ġmeasures": 4288,
      "Ġfigure": 4289,
      "Ã¶": 4290,
      "ĠDivision": 4291,
      "Ġfaced": 4292,
      "oted": 4293,
      "Ġfavorite": 4294,
      "Ġrecords": 4295,
      "New": 4296,
      "Ġeffort": 4297,
      "Ġdiet": 4298,
      "ĠRel": 4299,
      "Ġmachine": 4300,
      "Ġapproaches": 4301,
      "sec": 4302,
      "Ġapproximately": 4303,
      "Ġroles": 4304,
      "ĠEmp": 4305,
      "Ġreduced": 4306,
      "ounter": 4307,
      "Ġadvant": 4308,
      "Sp": 4309,
      "Ġ1970": 4310,
      "onic": 4311,
      "Ġsetting": 4312,
      "ĠAut": 4313,
      "mosp": 4314,
      "ĠLouis": 4315,
      "Ġhit": 4316,
      "Ġpurpose": 4317,
      "rupt": 4318,
      "ĠFore": 4319,
      "Ġfeelings": 4320,
      "ilk": 4321,
      "ĠSar": 4322,
      "Ġpartners": 4323,
      "Ġcurrently": 4324,
      "Ġstarting": 4325,
      "ĠAmericans": 4326,
      "Ġusers": 4327,
      "fficient": 4328,
      "Ġmentioned": 4329,
      "Ġox": 4330,
      "Ġcounter": 4331,
      "ĠRemember": 4332,
      "estic": 4333,
      "Ġtrial": 4334,
      "Ġsignificance": 4335,
      "ootball": 4336,
      "Ġleaving": 4337,
      "Ġtraditions": 4338,
      "iest": 4339,
      "Ġfields": 4340,
      "Ġteach": 4341,
      "ĠCarol": 4342,
      "Ġreceive": 4343,
      "Ġcomfort": 4344,
      "Ġolder": 4345,
      "Ġhighly": 4346,
      "edy": 4347,
      "ointed": 4348,
      "zing": 4349,
      "Ġaccur": 4350,
      "Ġplans": 4351,
      "Ġchallenging": 4352,
      "ĠEven": 4353,
      "Ġevolution": 4354,
      "Ġdetermine": 4355,
      "Ġconsequ": 4356,
      "ibl": 4357,
      "Ġstra": 4358,
      "Ġinfect": 4359,
      "Ġleave": 4360,
      "ĠRoyal": 4361,
      "Ġplanet": 4362,
      "Ġadvanced": 4363,
      "Ġtend": 4364,
      "Ġresulting": 4365,
      "Ġkilled": 4366,
      "ON": 4367,
      "enth": 4368,
      "ecause": 4369,
      "60": 4370,
      "Ġsolid": 4371,
      "ĠAv": 4372,
      "Ġfinding": 4373,
      "193": 4374,
      "Ġsleep": 4375,
      "comes": 4376,
      "ĠProt": 4377,
      "Ġhundred": 4378,
      "Ġhealthcare": 4379,
      "Ġdat": 4380,
      "za": 4381,
      "Ġprimarily": 4382,
      "Ġspent": 4383,
      "unk": 4384,
      "Ġgenerations": 4385,
      "Ġrecover": 4386,
      "Ġperspectives": 4387,
      "Ġship": 4388,
      "ĠTer": 4389,
      "rative": 4390,
      "resents": 4391,
      "iant": 4392,
      "istan": 4393,
      "ĠSince": 4394,
      "Ġeducational": 4395,
      "ĠFranc": 4396,
      "overs": 4397,
      "Ġequal": 4398,
      "Ġthemes": 4399,
      "Ġstore": 4400,
      "Ġtool": 4401,
      "Ġfuel": 4402,
      "ria": 4403,
      "ibly": 4404,
      "Ġbad": 4405,
      "Ġassum": 4406,
      "Ġreached": 4407,
      "Ġdegree": 4408,
      "ena": 4409,
      "Ġrule": 4410,
      "ota": 4411,
      "ĠUK": 4412,
      "Ġappreciate": 4413,
      "Ġincreasingly": 4414,
      "ĠGreek": 4415,
      "ĠLife": 4416,
      "cious": 4417,
      "ĠList": 4418,
      "ilm": 4419,
      "Ġinterpret": 4420,
      "Ġoptions": 4421,
      "Ġrout": 4422,
      "Ġwrite": 4423,
      "Ġengage": 4424,
      "AC": 4425,
      "idden": 4426,
      "Ġbelieved": 4427,
      "asks": 4428,
      "ĠGold": 4429,
      "Ġcam": 4430,
      "mitted": 4431,
      "Ġdeal": 4432,
      "ophy": 4433,
      "Ġemotional": 4434,
      "Ġcontinues": 4435,
      "Ġintellig": 4436,
      "Ġstandards": 4437,
      "Ġadults": 4438,
      "ĠSecond": 4439,
      "Ġwatch": 4440,
      "Ġrecently": 4441,
      "Ġmiles": 4442,
      "Ġfounded": 4443,
      "Ġanti": 4444,
      "rial": 4445,
      "ĠSte": 4446,
      "Ġmoving": 4447,
      "Ġstop": 4448,
      "Ġminor": 4449,
      "atur": 4450,
      "Ġmaxim": 4451,
      "alle": 4452,
      "Ġlimit": 4453,
      "Ġexcept": 4454,
      "Ġappears": 4455,
      "Ġvital": 4456,
      "Ġnarratives": 4457,
      "Ġleaves": 4458,
      "Ġdead": 4459,
      "Ġrelevant": 4460,
      "Ġregions": 4461,
      "Ġhelping": 4462,
      "Ġsurpr": 4463,
      "Ġrepresents": 4464,
      "Ġinteresting": 4465,
      "azing": 4466,
      "Ġchann": 4467,
      "ĠThen": 4468,
      "Ġwriters": 4469,
      "ĠDel": 4470,
      "ĠRad": 4471,
      "Ġcapacity": 4472,
      "Ġgoes": 4473,
      "Ġsecret": 4474,
      "ĠItalian": 4475,
      "amm": 4476,
      "Ġbond": 4477,
      "ĠMexico": 4478,
      "Ġdate": 4479,
      "Ġprepar": 4480,
      "ĠDirect": 4481,
      "Ġswe": 4482,
      "reland": 4483,
      "Ġmeeting": 4484,
      "Ġdetails": 4485,
      "Ġshaping": 4486,
      "enty": 4487,
      "tical": 4488,
      "Ġbit": 4489,
      "ĠWhite": 4490,
      "otic": 4491,
      "Ġindependent": 4492,
      "Ġpopulations": 4493,
      "ĠMont": 4494,
      "Ġphen": 4495,
      "ĠUp": 4496,
      "Ġinstitutions": 4497,
      "arter": 4498,
      "ĠCharles": 4499,
      "Ġuser": 4500,
      "Ġseparate": 4501,
      "Ġweather": 4502,
      "Ġutil": 4503,
      "Ġshall": 4504,
      "Ġchoose": 4505,
      "ĠSimilar": 4506,
      "Ġdivid": 4507,
      "Have": 4508,
      "Ġpresented": 4509,
      "ĠMag": 4510,
      "ĠId": 4511,
      "ĠLake": 4512,
      "irection": 4513,
      "Ġjustice": 4514,
      "ĠSun": 4515,
      "Ġstations": 4516,
      "ĠMad": 4517,
      "Ġgiving": 4518,
      "rich": 4519,
      "Ġunf": 4520,
      "ĠBi": 4521,
      "ĠFound": 4522,
      "Ġperhaps": 4523,
      "ĠSocial": 4524,
      "Ġunits": 4525,
      "Ġdecre": 4526,
      "gypt": 4527,
      "unction": 4528,
      "ĠRecords": 4529,
      "ĠKore": 4530,
      "Ġcreation": 4531,
      "ĠSmith": 4532,
      "Ġconstant": 4533,
      "Ġseems": 4534,
      "Ġinvolving": 4535,
      "Ġworldwide": 4536,
      "Ġ1995": 4537,
      "Ġdoctor": 4538,
      "Ġexpression": 4539,
      "Ġdry": 4540,
      "Ġpreviously": 4541,
      "ĠBr": 4542,
      "www": 4543,
      "well": 4544,
      "ĠKingdom": 4545,
      "Ġtopics": 4546,
      "Ġguide": 4547,
      "rix": 4548,
      "Ġreality": 4549,
      "ĠFam": 4550,
      "ĠOp": 4551,
      "Ġcultiv": 4552,
      "Ġmathemat": 4553,
      "ĠMusic": 4554,
      "Ġfacilit": 4555,
      "ĠAngel": 4556,
      "issions": 4557,
      "Ġresil": 4558,
      "ager": 4559,
      "Ġproperties": 4560,
      "Ġseeking": 4561,
      "liam": 4562,
      "Bob": 4563,
      "ĠIslam": 4564,
      "Ġelection": 4565,
      "ĠCult": 4566,
      "Ġlibrary": 4567,
      "Ġcritic": 4568,
      "ĠMiddle": 4569,
      "band": 4570,
      "writ": 4571,
      "Ġsac": 4572,
      "Ġheavy": 4573,
      "ded": 4574,
      "eff": 4575,
      "Ġserves": 4576,
      "ĠScott": 4577,
      "ĠClub": 4578,
      "ĠTor": 4579,
      "asts": 4580,
      "Ġincred": 4581,
      "ken": 4582,
      "ĠDec": 4583,
      "ĠRussian": 4584,
      "pected": 4585,
      "AN": 4586,
      "Ġanything": 4587,
      "Ġcoming": 4588,
      "Ġteacher": 4589,
      "oviet": 4590,
      "Ġinterests": 4591,
      "Ġsupply": 4592,
      "inent": 4593,
      "ĠTwo": 4594,
      "Ġfindings": 4595,
      "Ġtherefore": 4596,
      "ĠTim": 4597,
      "eters": 4598,
      "Ġstudying": 4599,
      "Ġnative": 4600,
      "Ġwis": 4601,
      "rical": 4602,
      "Ġbeliefs": 4603,
      "anguage": 4604,
      "Ġbacter": 4605,
      "Ġfully": 4606,
      "Ġcomprehens": 4607,
      "ightly": 4608,
      "Ġongoing": 4609,
      "ishing": 4610,
      "Ġpark": 4611,
      "ĠSing": 4612,
      "ĠDan": 4613,
      "Ġinput": 4614,
      "ona": 4615,
      "Ġrul": 4616,
      "Ġrare": 4617,
      "Ġbattle": 4618,
      "win": 4619,
      "ographic": 4620,
      "rants": 4621,
      "ilding": 4622,
      "ĠMichael": 4623,
      "ĠService": 4624,
      "aby": 4625,
      "gorith": 4626,
      "Ġconnected": 4627,
      "ario": 4628,
      "ĠPenn": 4629,
      "Ġoutcomes": 4630,
      "ship": 4631,
      "ĠInstead": 4632,
      "Ġrisks": 4633,
      "pass": 4634,
      "ĠKh": 4635,
      "Ġfigures": 4636,
      "ado": 4637,
      "Ġnegative": 4638,
      "ĠSuper": 4639,
      "ĠTown": 4640,
      "Ġtro": 4641,
      "Ġarrang": 4642,
      "liament": 4643,
      "Ġthoughts": 4644,
      "Ġpreserv": 4645,
      "Ġalone": 4646,
      "osen": 4647,
      "Ġhyp": 4648,
      "riage": 4649,
      "hi": 4650,
      "ĠFlorida": 4651,
      "ĠMass": 4652,
      "edia": 4653,
      "ĠJesus": 4654,
      "=\"": 4655,
      "Ġawareness": 4656,
      "Ġblock": 4657,
      "Ġopportunity": 4658,
      "Ġ1994": 4659,
      "Ġmolec": 4660,
      "oper": 4661,
      "ĠVict": 4662,
      "Ġexercise": 4663,
      "Ġdistance": 4664,
      "ĠOld": 4665,
      "Ġadjust": 4666,
      "uting": 4667,
      "Ġdiversity": 4668,
      "While": 4669,
      "Ġbenefit": 4670,
      "Ġdevice": 4671,
      "Ġspiritual": 4672,
      "ĠOh": 4673,
      "Ġexamining": 4674,
      "ĠJose": 4675,
      "Ġarm": 4676,
      "Ġfundam": 4677,
      "osy": 4678,
      "respond": 4679,
      "Ġmig": 4680,
      "Ġhear": 4681,
      "Ġwhom": 4682,
      "Ġexamine": 4683,
      "ĠTre": 4684,
      "uses": 4685,
      "Alice": 4686,
      "ĠSub": 4687,
      "80": 4688,
      "Ġdiss": 4689,
      "Ġsigned": 4690,
      "Ġfile": 4691,
      "ĠSk": 4692,
      "Ġbul": 4693,
      "abet": 4694,
      "ĠJournal": 4695,
      "Ġ1960": 4696,
      "ĠAtl": 4697,
      "ibilities": 4698,
      "ĠStep": 4699,
      "Ġeat": 4700,
      "orough": 4701,
      "ĠCre": 4702,
      "Ġencounter": 4703,
      "Ġcrop": 4704,
      "Ġatmosp": 4705,
      "Ġtail": 4706,
      "with": 4707,
      "Ġtherapy": 4708,
      "Conclusion": 4709,
      "ĠOut": 4710,
      "ĠMem": 4711,
      "place": 4712,
      "ĠBob": 4713,
      "Ġsouthern": 4714,
      "Ġexposure": 4715,
      "Ġpet": 4716,
      "mark": 4717,
      "Ġtiss": 4718,
      "Ġgather": 4719,
      "ican": 4720,
      "iveness": 4721,
      "Ġrise": 4722,
      "ĠEgypt": 4723,
      "Ġdestroy": 4724,
      "nic": 4725,
      "Ġtast": 4726,
      "Ġbehavi": 4727,
      "Ġregional": 4728,
      "ĠRail": 4729,
      "gn": 4730,
      "Ġintric": 4731,
      "Ġconc": 4732,
      "ada": 4733,
      "azine": 4734,
      "Ġlegisl": 4735,
      "Ġ60": 4736,
      "Ġapply": 4737,
      "ensity": 4738,
      "Ġguitar": 4739,
      "OR": 4740,
      "ĠPeter": 4741,
      "Ġsituations": 4742,
      "Ġ2017": 4743,
      "Ġinstruct": 4744,
      "Ġfoods": 4745,
      "vironments": 4746,
      "ini": 4747,
      "Ġfrequently": 4748,
      "Ġreligion": 4749,
      "omic": 4750,
      "ĠGrand": 4751,
      "Ġvast": 4752,
      "Ġegg": 4753,
      "ĠFrank": 4754,
      "Ġcausing": 4755,
      "Ġpicture": 4756,
      "Ġmob": 4757,
      "Ġresistance": 4758,
      "ructure": 4759,
      "uit": 4760,
      "ĠBoth": 4761,
      "Ġrecip": 4762,
      "Ġengineering": 4763,
      "Ġcompetition": 4764,
      "Ġingred": 4765,
      "Ġcra": 4766,
      "Ġoriginally": 4767,
      "Ġexpected": 4768,
      "Ġcolors": 4769,
      "ĠCamp": 4770,
      "Ġwear": 4771,
      "Ġtesting": 4772,
      "Course": 4773,
      "Ġmovements": 4774,
      "Ġimproved": 4775,
      "Ġlies": 4776,
      "Ġexperiment": 4777,
      "Ġalbums": 4778,
      "Ġcollaboration": 4779,
      "Ġfix": 4780,
      "Another": 4781,
      "Ġbott": 4782,
      "arsh": 4783,
      "Ġisland": 4784,
      "Ġcreative": 4785,
      "ĠTom": 4786,
      "Ġpresence": 4787,
      "Ġhttp": 4788,
      "Ġemotions": 4789,
      "Ġscholars": 4790,
      "Ġchanging": 4791,
      "ĠOnce": 4792,
      "De": 4793,
      "Ind": 4794,
      "Ġenhance": 4795,
      "itle": 4796,
      "Ġthousands": 4797,
      "Ġvoice": 4798,
      "ĠWil": 4799,
      "Ġdiseases": 4800,
      "Ġdedicated": 4801,
      "oles": 4802,
      "ĠRob": 4803,
      "book": 4804,
      "!\"": 4805,
      "bra": 4806,
      "ogen": 4807,
      "ĠWater": 4808,
      "ala": 4809,
      "ĠIreland": 4810,
      "iate": 4811,
      "Ġreducing": 4812,
      "Ġ2018": 4813,
      "Ġwonder": 4814,
      "Ġunivers": 4815,
      "Ġcold": 4816,
      "gl": 4817,
      "Ġgives": 4818,
      "Ġnothing": 4819,
      "iable": 4820,
      "ĠVirginia": 4821,
      "Ġsess": 4822,
      "urance": 4823,
      "Living": 4824,
      "ĠJud": 4825,
      "Ġnorthern": 4826,
      "icago": 4827,
      "python": 4828,
      "ĠClass": 4829,
      "Ġaffected": 4830,
      "Ġgrant": 4831,
      "Ġlandscape": 4832,
      "Ġanswer": 4833,
      "mat": 4834,
      "Ġrain": 4835,
      "PA": 4836,
      "Ġparam": 4837,
      "Ġacademic": 4838,
      "ĠFin": 4839,
      "Ġalongside": 4840,
      "Ġblue": 4841,
      "First": 4842,
      "Ġtests": 4843,
      "Ġapplied": 4844,
      "acific": 4845,
      "Ġrepe": 4846,
      "Ġappearance": 4847,
      "Ġ1992": 4848,
      "rd": 4849,
      "Ġinh": 4850,
      "Ġultimately": 4851,
      "Ġ(\"": 4852,
      "ipped": 4853,
      "estival": 4854,
      "Ġexperienced": 4855,
      "Ġfinally": 4856,
      "ressive": 4857,
      "Ġreasons": 4858,
      "Ġsuppl": 4859,
      "ogether": 4860,
      "ĠFre": 4861,
      "Ġtechnique": 4862,
      "Ġsen": 4863,
      "\")": 4864,
      "Ġnearby": 4865,
      "Ġenvironments": 4866,
      "Ġwaste": 4867,
      "Ġopening": 4868,
      "Ġclosely": 4869,
      "ĠArab": 4870,
      "Ġfocused": 4871,
      "ĠDisc": 4872,
      "Ġstrength": 4873,
      "Ġweb": 4874,
      "ĠTime": 4875,
      "Ġpick": 4876,
      "ĠCommission": 4877,
      "ĠSol": 4878,
      "Ġcompos": 4879,
      "Ġdaughter": 4880,
      "ensus": 4881,
      "ĠCivil": 4882,
      "Ġbasis": 4883,
      "Ġvary": 4884,
      "ĠAcademy": 4885,
      "Ġbirds": 4886,
      "Ġcenturies": 4887,
      "load": 4888,
      "Ġworth": 4889,
      "itors": 4890,
      "uls": 4891,
      "aks": 4892,
      "Ġunc": 4893,
      "Ġdirection": 4894,
      "ĠHenry": 4895,
      "Ġincorporating": 4896,
      "ta": 4897,
      "ĠExp": 4898,
      "Is": 4899,
      "ologists": 4900,
      "Ġleader": 4901,
      "gra": 4902,
      "apers": 4903,
      "ĠProfess": 4904,
      "All": 4905,
      "anta": 4906,
      "inations": 4907,
      "Ġsounds": 4908,
      "Ġsolution": 4909,
      "ĠLear": 4910,
      "ittle": 4911,
      "making": 4912,
      "Ġinterview": 4913,
      "Ġupd": 4914,
      "Ġcircum": 4915,
      "Ġinters": 4916,
      "Ġeconomy": 4917,
      "Once": 4918,
      "Ġoffering": 4919,
      "lv": 4920,
      "etball": 4921,
      "Ġresource": 4922,
      "Ġoffered": 4923,
      "During": 4924,
      "Ġconflict": 4925,
      "being": 4926,
      "Ġhighlight": 4927,
      "Ġspect": 4928,
      "Ġprotein": 4929,
      "Ġfear": 4930,
      "arly": 4931,
      "ĠHere": 4932,
      "Ġannual": 4933,
      "ĠGovernment": 4934,
      "Ġpolice": 4935,
      "Ġgun": 4936,
      "Ġalgorith": 4937,
      "Ġshowed": 4938,
      "ĠPlan": 4939,
      "Ġhighest": 4940,
      "bour": 4941,
      "Ġmusical": 4942,
      "ĠRet": 4943,
      "Ġfeeling": 4944,
      "Ġelement": 4945,
      "appy": 4946,
      "Ġglass": 4947,
      "ĠBas": 4948,
      "Ġartist": 4949,
      "Ġdu": 4950,
      "Ġcorrespond": 4951,
      "35": 4952,
      "ĠĠĠĠĠĠĠ": 4953,
      "ĠBill": 4954,
      "ĠDevelopment": 4955,
      "iments": 4956,
      "ingly": 4957,
      "Ġtasks": 4958,
      "Ġexpert": 4959,
      "ĠLord": 4960,
      "ĠHuman": 4961,
      "ologist": 4962,
      "Ġsustainable": 4963,
      "AA": 4964,
      "xts": 4965,
      "Ġachieve": 4966,
      "Ġsolar": 4967,
      "sect": 4968,
      "Ġcry": 4969,
      "elled": 4970,
      "ulating": 4971,
      "ĠIll": 4972,
      "aud": 4973,
      "Ġelected": 4974,
      "Ġsettle": 4975,
      "bal": 4976,
      "Ġcovered": 4977,
      "Ġmetal": 4978,
      "ĠSoviet": 4979,
      "Ġopin": 4980,
      "Ġsevere": 4981,
      "Ġ31": 4982,
      "Ġacid": 4983,
      "Ġmedicine": 4984,
      "Ġgained": 4985,
      "Ġparties": 4986,
      "ĠHel": 4987,
      "These": 4988,
      "ĠDi": 4989,
      "Ġconvent": 4990,
      "Ġlabel": 4991,
      "Ġcompar": 4992,
      "agon": 4993,
      "ocratic": 4994,
      "IC": 4995,
      "Ġtrain": 4996,
      "Ġweak": 4997,
      "ĠAsia": 4998,
      "Ġphenomen": 4999,
      "Ġaircraft": 5000,
      "Ġanyone": 5001,
      "Ġ185": 5002,
      "Ġgenetic": 5003,
      "rows": 5004,
      "Ġcompletely": 5005,
      "ĠHave": 5006,
      "Ġcarefully": 5007,
      "ĠCD": 5008,
      "Ġremind": 5009,
      "ĠOb": 5010,
      "Ġ1993": 5011,
      "osa": 5012,
      "Ġwinter": 5013,
      "ait": 5014,
      "ĠMel": 5015,
      "Ġprison": 5016,
      "atre": 5017,
      "Ġhappens": 5018,
      "rin": 5019,
      "ani": 5020,
      "Ġwalk": 5021,
      "ĠLatin": 5022,
      "Ġmajority": 5023,
      "ĠConf": 5024,
      "orage": 5025,
      "ented": 5026,
      "Ġinnovative": 5027,
      "Ġhomes": 5028,
      "Ġbrief": 5029,
      "Ġprofessionals": 5030,
      "ĠNet": 5031,
      "Ġgets": 5032,
      "Ġready": 5033,
      "erate": 5034,
      "ishop": 5035,
      "ulf": 5036,
      "Te": 5037,
      "Ġclosed": 5038,
      "Ġran": 5039,
      "ĠScot": 5040,
      "Ġletter": 5041,
      "Ġimmediately": 5042,
      "ĠThus": 5043,
      "utch": 5044,
      "zil": 5045,
      "state": 5046,
      "ĠColumb": 5047,
      "Ġaddressing": 5048,
      "ette": 5049,
      "Ġidentified": 5050,
      "xi": 5051,
      "',": 5052,
      "Ġresilience": 5053,
      "Ġnoted": 5054,
      "Ġreferred": 5055,
      "Ġhop": 5056,
      "Ġcapable": 5057,
      "Ġdream": 5058,
      "ĠItaly": 5059,
      "Ġconver": 5060,
      "Ġmap": 5061,
      "Ġload": 5062,
      "Ġbank": 5063,
      "Ġourselves": 5064,
      "ĠCO": 5065,
      "Se": 5066,
      "heast": 5067,
      "Ġgar": 5068,
      "Ġwal": 5069,
      "rated": 5070,
      "ĠDespite": 5071,
      "IT": 5072,
      "ĠHam": 5073,
      "rics": 5074,
      "45": 5075,
      "ype": 5076,
      "Ġuseful": 5077,
      "ĠSimilarly": 5078,
      "know": 5079,
      "Ġmur": 5080,
      "Eng": 5081,
      "Ġforced": 5082,
      "rum": 5083,
      "Ġinvolve": 5084,
      "Ġdepend": 5085,
      "Ġfoster": 5086,
      "hetic": 5087,
      "Ġappointed": 5088,
      "Ġreplaced": 5089,
      "Ġcommonly": 5090,
      "Ġactual": 5091,
      "Ġsmooth": 5092,
      "Ġ1991": 5093,
      "Ġproposed": 5094,
      "Ġfif": 5095,
      "Ġdirected": 5096,
      "Ġrequirements": 5097,
      "alities": 5098,
      "embly": 5099,
      "itt": 5100,
      "Ġwriter": 5101,
      "ola": 5102,
      "ĠMo": 5103,
      "Ġsets": 5104,
      "Ġliber": 5105,
      "yles": 5106,
      "Ġmanage": 5107,
      "ĠRichard": 5108,
      "ĠZeal": 5109,
      "ĠPlay": 5110,
      "Ġ2020": 5111,
      "Ġtradition": 5112,
      "ĠSupp": 5113,
      "Ġinformed": 5114,
      "ĠRock": 5115,
      "Ġdepending": 5116,
      "70": 5117,
      "uing": 5118,
      "umni": 5119,
      "Ġsigns": 5120,
      "Ġera": 5121,
      "related": 5122,
      "Ġ2019": 5123,
      "Ġtexts": 5124,
      "Ġowners": 5125,
      "Ġju": 5126,
      "ĠEnvironment": 5127,
      "while": 5128,
      "Ġindustrial": 5129,
      "Ġfinished": 5130,
      "ĠWrit": 5131,
      "Ġsaying": 5132,
      "Ġcoord": 5133,
      "Ġlat": 5134,
      "umber": 5135,
      "orb": 5136,
      "Ġoperation": 5137,
      "Ġpros": 5138,
      "ĠUl": 5139,
      "90": 5140,
      "asp": 5141,
      "ĠImp": 5142,
      "iration": 5143,
      "itness": 5144,
      "ella": 5145,
      "rence": 5146,
      "Ġcarried": 5147,
      "Ġexcess": 5148,
      "ĠBritain": 5149,
      "ĠJews": 5150,
      "Ġreports": 5151,
      "isher": 5152,
      "Ġroll": 5153,
      "Ġfort": 5154,
      "Ġwrong": 5155,
      "Ġadding": 5156,
      "Ġcoach": 5157,
      "ĠLin": 5158,
      "Ġfreedom": 5159,
      "____": 5160,
      "eline": 5161,
      "Ġleague": 5162,
      "rogen": 5163,
      "ĠSee": 5164,
      "Ġbroader": 5165,
      "ĠInf": 5166,
      "ĠWho": 5167,
      "ĠChicago": 5168,
      "Ġsav": 5169,
      "ĠRead": 5170,
      "Ġconducted": 5171,
      "From": 5172,
      "Ġrein": 5173,
      "Ġenab": 5174,
      "Ġfeat": 5175,
      "Ġmaybe": 5176,
      "Ġoccurs": 5177,
      "ĠVictor": 5178,
      "ĠNews": 5179,
      "Ġcook": 5180,
      "lo": 5181,
      "ĠRussia": 5182,
      "ĠZealand": 5183,
      "eech": 5184,
      "Ġroute": 5185,
      "Ġcogn": 5186,
      "Ġaimed": 5187,
      "Ġsurg": 5188,
      "Ġprefer": 5189,
      "Ġnetworks": 5190,
      "Ġhappened": 5191,
      "Ġrh": 5192,
      "()": 5193,
      "under": 5194,
      "iled": 5195,
      "Ġcandid": 5196,
      "ĠBest": 5197,
      "Ġpractical": 5198,
      "ĠMain": 5199,
      "Ġplot": 5200,
      "Ġsave": 5201,
      "Ġspl": 5202,
      "Ġpal": 5203,
      "Ġpolitics": 5204,
      "Â°": 5205,
      "Ġraised": 5206,
      "CC": 5207,
      "Ġappreciation": 5208,
      "rate": 5209,
      "Ġplatforms": 5210,
      "ĠProgram": 5211,
      "bi": 5212,
      "Ġcharg": 5213,
      "Ġfundamental": 5214,
      "ĠBrown": 5215,
      "Ġmel": 5216,
      "Ġamazing": 5217,
      "Ġviolence": 5218,
      "Ġdiscussion": 5219,
      "add": 5220,
      "rison": 5221,
      "iosity": 5222,
      "ĠBur": 5223,
      "ĠHill": 5224,
      "Ġimmig": 5225,
      "Ġadult": 5226,
      "Ġserving": 5227,
      "Ġpp": 5228,
      "ĠPacific": 5229,
      "Ġinternal": 5230,
      "Ġspot": 5231,
      "Ġmarg": 5232,
      "Ġconsequences": 5233,
      "arp": 5234,
      "Ġreplace": 5235,
      "Ġscale": 5236,
      "icit": 5237,
      "Ġkeeping": 5238,
      "ĠWeb": 5239,
      "ellect": 5240,
      "Ġmeant": 5241,
      "inger": 5242,
      "Ġemerg": 5243,
      "Ġchief": 5244,
      "align": 5245,
      "icious": 5246,
      "Ġrecon": 5247,
      "Ġrot": 5248,
      "Ġformation": 5249,
      "igan": 5250,
      "Ġtruth": 5251,
      "ockey": 5252,
      "ested": 5253,
      "Before": 5254,
      "clusive": 5255,
      "ano": 5256,
      "Ġknew": 5257,
      "ĠAp": 5258,
      "ĠOrgan": 5259,
      "sylv": 5260,
      "Ġcharacteristics": 5261,
      "Ġvacc": 5262,
      "Ġdefined": 5263,
      "Ġobserved": 5264,
      "Ġcontrast": 5265,
      "Ġmessage": 5266,
      "ED": 5267,
      "Ġprem": 5268,
      "ĠCarolina": 5269,
      "Ġpric": 5270,
      "vis": 5271,
      "ĠParis": 5272,
      "Ġtraffic": 5273,
      "ube": 5274,
      "ĠFe": 5275,
      "tra": 5276,
      "Ġclasses": 5277,
      "cher": 5278,
      "Ġarmy": 5279,
      "othes": 5280,
      "ĠCast": 5281,
      "Ġspaces": 5282,
      "cking": 5283,
      "ĠPers": 5284,
      "Ġnotable": 5285,
      "ĠGeorg": 5286,
      "Ġneighbor": 5287,
      "Ġhero": 5288,
      "ĠMuslim": 5289,
      "ĠAlso": 5290,
      "Ġcombined": 5291,
      "Ġbrand": 5292,
      "ĠNA": 5293,
      "Ġtouch": 5294,
      "iller": 5295,
      "Ġframew": 5296,
      "icy": 5297,
      "Ġtrou": 5298,
      "Ġnotes": 5299,
      "Ġlic": 5300,
      "Ġsuggests": 5301,
      "Ġtow": 5302,
      "down": 5303,
      "ĠChampionship": 5304,
      "Ġheight": 5305,
      "ersonal": 5306,
      "rog": 5307,
      "icing": 5308,
      "Ġresponsibility": 5309,
      "ĠWomen": 5310,
      "Ġeating": 5311,
      "Ġknows": 5312,
      "Ġinitially": 5313,
      "ĠEmpire": 5314,
      "33": 5315,
      "III": 5316,
      "iling": 5317,
      "sylvania": 5318,
      "ault": 5319,
      "Ġattrib": 5320,
      "EC": 5321,
      "Ġoutput": 5322,
      "Ġdiscussions": 5323,
      "OS": 5324,
      "text": 5325,
      "ĠBudd": 5326,
      "Ġsyn": 5327,
      "Ġliterary": 5328,
      "Ġfollows": 5329,
      "Ġselected": 5330,
      "Ġsocietal": 5331,
      "PS": 5332,
      "Ġwidely": 5333,
      "Ġleads": 5334,
      "==": 5335,
      "Ġnewsp": 5336,
      "iography": 5337,
      "Ġdrawing": 5338,
      "dis": 5339,
      "ĠJer": 5340,
      "ĠAnn": 5341,
      "Ġrepresented": 5342,
      "Ġfellow": 5343,
      "Ġconservation": 5344,
      "Ġbuy": 5345,
      "ĠUse": 5346,
      "coh": 5347,
      "Ġworry": 5348,
      "ĠMer": 5349,
      "Ġsand": 5350,
      "Ġprocessing": 5351,
      "Ġprice": 5352,
      "Ġindigenous": 5353,
      "Ġinspired": 5354,
      "ĠLand": 5355,
      "mas": 5356,
      "ĠPan": 5357,
      "Ġboundaries": 5358,
      "Ġchampions": 5359,
      "Ġfeatured": 5360,
      "Ġruns": 5361,
      "ĠBook": 5362,
      "However": 5363,
      "Ġexchange": 5364,
      "Ġhousehold": 5365,
      "rees": 5366,
      "Ġremaining": 5367,
      "ails": 5368,
      "Ġincome": 5369,
      "ĠCommit": 5370,
      "ĠEngine": 5371,
      "Ġexploration": 5372,
      "ban": 5373,
      "stitution": 5374,
      "Ġprepared": 5375,
      "met": 5376,
      "Ġincredible": 5377,
      "unte": 5378,
      "Ġsatis": 5379,
      "Ġtask": 5380,
      "ĠBet": 5381,
      "itoring": 5382,
      "Ġillness": 5383,
      "ressed": 5384,
      "ĠDNA": 5385,
      "Ġsymbol": 5386,
      "Ġreserv": 5387,
      "ocal": 5388,
      "aming": 5389,
      "ĠForm": 5390,
      "ii": 5391,
      "ĠDu": 5392,
      "Ġfant": 5393,
      "Ġbillion": 5394,
      "ĠCommon": 5395,
      "Ġcris": 5396,
      "Ġyouth": 5397,
      "Ġdecades": 5398,
      "Ġrelatively": 5399,
      "Ġoperating": 5400,
      "Ġmist": 5401,
      "ĠBre": 5402,
      "uty": 5403,
      "oral": 5404,
      "Ġnuclear": 5405,
      "Ġfamiliar": 5406,
      "ĠNorthern": 5407,
      "Ġseek": 5408,
      "Ġunex": 5409,
      "Ġresidents": 5410,
      "Ġâ": 5411,
      "ĠWood": 5412,
      "Ġpaint": 5413,
      "Ġepisode": 5414,
      "Ġnote": 5415,
      "Ġmotiv": 5416,
      "Ġcomment": 5417,
      "ita": 5418,
      "Ġsupporting": 5419,
      "ĠPost": 5420,
      "Ġgeneration": 5421,
      "imb": 5422,
      "Ġdouble": 5423,
      "Ġelim": 5424,
      "osystem": 5425,
      "ĠPower": 5426,
      "Ġempathy": 5427,
      "Ġliqu": 5428,
      "ansion": 5429,
      "Ġsupported": 5430,
      "Ġdebut": 5431,
      "Ġfer": 5432,
      "Ġweap": 5433,
      "ĠWild": 5434,
      "Ġbask": 5435,
      "ht": 5436,
      "Ġemployed": 5437,
      "ĠLong": 5438,
      "Ġcars": 5439,
      "ĠFootball": 5440,
      "Ġexplained": 5441,
      "Ġspring": 5442,
      "Ġcloser": 5443,
      "Ġamb": 5444,
      "Act": 5445,
      "ĠPract": 5446,
      "apes": 5447,
      "Ġ1989": 5448,
      "Ġcontaining": 5449,
      "Ġchance": 5450,
      "Ġupper": 5451,
      "ĠSpace": 5452,
      "rey": 5453,
      "roph": 5454,
      "Ġwestern": 5455,
      "Ġreform": 5456,
      "ĠGood": 5457,
      "Ġfacilities": 5458,
      "Ġheritage": 5459,
      "Ġchoices": 5460,
      "Ġstated": 5461,
      "Ġvul": 5462,
      "Ġcreativity": 5463,
      "Ġchoice": 5464,
      "inet": 5465,
      "ĠWind": 5466,
      "Ġcareful": 5467,
      "alled": 5468,
      "Ġpun": 5469,
      "ao": 5470,
      "EN": 5471,
      "ĠElect": 5472,
      "illa": 5473,
      "Ġprofessor": 5474,
      "Introduction": 5475,
      "2006": 5476,
      "gment": 5477,
      "Ġwasn": 5478,
      "Ġauthority": 5479,
      "war": 5480,
      "Ġvision": 5481,
      "Ġmostly": 5482,
      "ĠOrder": 5483,
      "Ġenable": 5484,
      "des": 5485,
      "Ġspeech": 5486,
      "ĠLos": 5487,
      "Ġrecommend": 5488,
      "Ġsettings": 5489,
      "Ġyield": 5490,
      "MS": 5491,
      "ĠDet": 5492,
      "Ġadventure": 5493,
      "Ġsignal": 5494,
      "ĠJoseph": 5495,
      "vious": 5496,
      "asy": 5497,
      "Ġtiny": 5498,
      "ĠSpain": 5499,
      "ĠOl": 5500,
      "Ġremark": 5501,
      "Ġhidden": 5502,
      "ĠProject": 5503,
      "Ġenem": 5504,
      "riev": 5505,
      "Ġwealth": 5506,
      "osc": 5507,
      "ĠValley": 5508,
      "Ġinfection": 5509,
      "Ġrat": 5510,
      "Ġdisapp": 5511,
      "Ġmanaged": 5512,
      "azz": 5513,
      "Ġnavigate": 5514,
      "Ġpu": 5515,
      "ĠKar": 5516,
      "Ġarrived": 5517,
      "US": 5518,
      "Ġintelligence": 5519,
      "ĠCat": 5520,
      "ĠThink": 5521,
      "Ġ...": 5522,
      "ĠMil": 5523,
      "ĠIrish": 5524,
      "Ġisol": 5525,
      "ĠGames": 5526,
      "Ġengagement": 5527,
      "Ġtaught": 5528,
      "Ġdynamics": 5529,
      "ĠPennsylvania": 5530,
      "Ġaren": 5531,
      "Ġshif": 5532,
      "Ġfirm": 5533,
      "ament": 5534,
      "Ġexternal": 5535,
      "ĠSuch": 5536,
      "Ġhospital": 5537,
      "ĠPet": 5538,
      "Ġmuseum": 5539,
      "Ġhappen": 5540,
      "Ġdoub": 5541,
      "Ġnom": 5542,
      "inant": 5543,
      "othing": 5544,
      "Here": 5545,
      "ĠHaw": 5546,
      "ollowing": 5547,
      "icks": 5548,
      "Ġstars": 5549,
      "ĠOper": 5550,
      "ĠSqu": 5551,
      "ĠAmong": 5552,
      "Ġprogramming": 5553,
      "Ġfoundation": 5554,
      "Ġsugar": 5555,
      "Ġleadership": 5556,
      "level": 5557,
      "Ġexistence": 5558,
      "Ġshot": 5559,
      "venue": 5560,
      "Ġconsists": 5561,
      "Ġarts": 5562,
      "ĠSouthern": 5563,
      "Ġrecognize": 5564,
      "Ġletters": 5565,
      "Ġnations": 5566,
      "Ġiron": 5567,
      "ĠYear": 5568,
      "cers": 5569,
      "Ġlooked": 5570,
      "Ġformat": 5571,
      "Ġhair": 5572,
      "Ġsynt": 5573,
      "aven": 5574,
      "ĠDesign": 5575,
      "Ġcoin": 5576,
      "Ġensures": 5577,
      "from": 5578,
      "Ġstraight": 5579,
      "la": 5580,
      "Ġfle": 5581,
      "Ġingredients": 5582,
      "DA": 5583,
      "ĠStar": 5584,
      "ĠForce": 5585,
      "Ġgarden": 5586,
      "Ġlayer": 5587,
      "ua": 5588,
      "Ġsoldiers": 5589,
      "fficial": 5590,
      "bur": 5591,
      "Ġorigin": 5592,
      "Ġfactor": 5593,
      "Ġdrive": 5594,
      "Ġelev": 5595,
      "Ġreference": 5596,
      "Ġapart": 5597,
      "Ġfruit": 5598,
      "Ġacknow": 5599,
      "36": 5600,
      "Ġgod": 5601,
      "ĠKn": 5602,
      "Rec": 5603,
      "Ġvit": 5604,
      "Ġparticipants": 5605,
      "Ġended": 5606,
      "Ġchosen": 5607,
      "ĠTest": 5608,
      "which": 5609,
      "Ġloved": 5610,
      "Ġaid": 5611,
      "ady": 5612,
      "Ġneuro": 5613,
      "Ġintended": 5614,
      "48": 5615,
      "Ġsecure": 5616,
      "Ġremoved": 5617,
      "anges": 5618,
      "Ġexplain": 5619,
      "ĠUN": 5620,
      "Ġvent": 5621,
      "ĠLu": 5622,
      "Ġcharge": 5623,
      "herent": 5624,
      "ĠUsing": 5625,
      "Ġ80": 5626,
      "Ġguidance": 5627,
      "ĠConsider": 5628,
      "Ġbud": 5629,
      "Ġmanaging": 5630,
      "37": 5631,
      ".;": 5632,
      "ĠBus": 5633,
      "Ġslightly": 5634,
      "Ġhouses": 5635,
      "Ġdivision": 5636,
      "reme": 5637,
      "Ġmovie": 5638,
      "Ġamid": 5639,
      "ĠTimes": 5640,
      "Ġpil": 5641,
      "Ġsubstant": 5642,
      "Ġstudied": 5643,
      "riers": 5644,
      "enses": 5645,
      "Ġmouth": 5646,
      "Ġ1950": 5647,
      "Res": 5648,
      "Am": 5649,
      "Ã¤": 5650,
      "ĠEastern": 5651,
      "Ġ1988": 5652,
      "ĠYoung": 5653,
      "Ġvess": 5654,
      "Mus": 5655,
      "Ġban": 5656,
      "Ġrevolution": 5657,
      "Ġlisted": 5658,
      "osh": 5659,
      "ĠColl": 5660,
      "Ġguidelines": 5661,
      "ĠLibrary": 5662,
      "Ġocean": 5663,
      "opy": 5664,
      "Ġsubjects": 5665,
      "Ġattend": 5666,
      "Ġmotor": 5667,
      "Ġtemperatures": 5668,
      "Ġagg": 5669,
      "ums": 5670,
      "Ġflood": 5671,
      "uration": 5672,
      "ĠSaint": 5673,
      "ĠHappy": 5674,
      "no": 5675,
      "Ġdrugs": 5676,
      "Ġdrop": 5677,
      "Ġgrew": 5678,
      "Ġconsult": 5679,
      "Ġcooking": 5680,
      "Ġparent": 5681,
      "Ġpurposes": 5682,
      "Ġcircumst": 5683,
      "Ġsquare": 5684,
      "38": 5685,
      "throp": 5686,
      "Ġalter": 5687,
      "Ġstrategy": 5688,
      "igg": 5689,
      "Ge": 5690,
      "lig": 5691,
      "Ġdesigns": 5692,
      "hus": 5693,
      "Ġefficiency": 5694,
      "Ġaw": 5695,
      "Ġbegins": 5696,
      "Ġsuc": 5697,
      "ĠSwed": 5698,
      "ocol": 5699,
      "Ġathlet": 5700,
      "ĠFort": 5701,
      "Ġappeal": 5702,
      "Ġextended": 5703,
      "Ġmarked": 5704,
      "Some": 5705,
      "iana": 5706,
      "Ġroots": 5707,
      "Ġdiscrim": 5708,
      "Ġpush": 5709,
      "Ġarticles": 5710,
      "Ġancest": 5711,
      "Ġlaun": 5712,
      "Ġflex": 5713,
      "ĠTechnology": 5714,
      "ĠSea": 5715,
      "ĠCare": 5716,
      "Ġmanager": 5717,
      "ĠCommittee": 5718,
      "pping": 5719,
      "Ġstorage": 5720,
      "Ġbeauty": 5721,
      "ifications": 5722,
      "Ġscene": 5723,
      "unting": 5724,
      "Ġcuriosity": 5725,
      "ĠSir": 5726,
      "Ġperspective": 5727,
      "ava": 5728,
      "Ġeasier": 5729,
      "Ġrepresentation": 5730,
      "ĠBrazil": 5731,
      "Can": 5732,
      "Ġsusp": 5733,
      "ĠKeep": 5734,
      "icial": 5735,
      "Ġmarriage": 5736,
      "hand": 5737,
      "Ġtells": 5738,
      "Ġ35": 5739,
      "Ġinnovation": 5740,
      "Ġconsumption": 5741,
      "Through": 5742,
      "Ġtowns": 5743,
      "allel": 5744,
      "part": 5745,
      "Ġabilities": 5746,
      "name": 5747,
      "ĠLike": 5748,
      "Other": 5749,
      "Ġnutrit": 5750,
      "Ġ\\": 5751,
      "ĊĠĠĠĠĠĠĠ": 5752,
      "Ġcomputers": 5753,
      "ĠEvery": 5754,
      "ĠOlympics": 5755,
      "ĠManagement": 5756,
      "Ġestablishments": 5757,
      "47": 5758,
      "ĠPython": 5759,
      "rome": 5760,
      "Ġtruly": 5761,
      "Ġcollective": 5762,
      "Ġdro": 5763,
      "Ġintellect": 5764,
      "rastructure": 5765,
      "2000": 5766,
      "itis": 5767,
      "Ġbed": 5768,
      "ĠTem": 5769,
      "orter": 5770,
      "hent": 5771,
      "Ġdance": 5772,
      "oir": 5773,
      "Ġstorm": 5774,
      "Ġestimated": 5775,
      "Ġnovels": 5776,
      "ĠMinister": 5777,
      "yr": 5778,
      "Ġfeaturing": 5779,
      "owl": 5780,
      "verse": 5781,
      "Ġtrends": 5782,
      "Bl": 5783,
      "eria": 5784,
      "abetes": 5785,
      "TV": 5786,
      "Ġoccurred": 5787,
      "Äģ": 5788,
      "anda": 5789,
      "ĠSarah": 5790,
      "---": 5791,
      "ĠMartin": 5792,
      "Ġvolume": 5793,
      "Ġrecognized": 5794,
      "Ġtried": 5795,
      "ĠBC": 5796,
      "ultane": 5797,
      "ĠBecause": 5798,
      "Ġsuggested": 5799,
      "ĠFoundation": 5800,
      "Ġvictim": 5801,
      "ĠAnother": 5802,
      "Ġvalid": 5803,
      "BT": 5804,
      "Ġwall": 5805,
      "ato": 5806,
      "Ġahead": 5807,
      "Ġmunicipality": 5808,
      "Ġfourth": 5809,
      "Ġofficials": 5810,
      "ĠJack": 5811,
      "Ġpregn": 5812,
      "Ġdiscovery": 5813,
      "ione": 5814,
      "ĠMu": 5815,
      "ĠIII": 5816,
      "Ġrealized": 5817,
      "Ġsurvey": 5818,
      "Ġdiscipl": 5819,
      "eless": 5820,
      ".'": 5821,
      "Ġwaters": 5822,
      "ĠArts": 5823,
      "ighter": 5824,
      "Ġvulner": 5825,
      "oving": 5826,
      "Ġencourage": 5827,
      "Ġaccurate": 5828,
      "raction": 5829,
      "Ġstim": 5830,
      "ĠDen": 5831,
      "Ġrand": 5832,
      "Ġpotentially": 5833,
      "Ġsides": 5834,
      "Ġ()": 5835,
      "Ġinteractions": 5836,
      "ĠStand": 5837,
      "Ġintricate": 5838,
      "RA": 5839,
      "Ġpul": 5840,
      "Ġperiods": 5841,
      "Ġkm": 5842,
      "eding": 5843,
      "ĠStudies": 5844,
      "Ġmatters": 5845,
      "Ġecosystem": 5846,
      "ĠAngeles": 5847,
      "Ġvibr": 5848,
      "39": 5849,
      "Ġachiev": 5850,
      "Ġadvers": 5851,
      "ĠTour": 5852,
      "urd": 5853,
      "Ġ1987": 5854,
      "Ġatmosphere": 5855,
      "Ġcorpor": 5856,
      "orous": 5857,
      "Ġfell": 5858,
      "cont": 5859,
      "iform": 5860,
      "Ġrenew": 5861,
      "Ġign": 5862,
      "Ġtechnical": 5863,
      "inity": 5864,
      "FA": 5865,
      "ĠRh": 5866,
      "Ġrural": 5867,
      "ishes": 5868,
      "Ġclaims": 5869,
      "Ġethical": 5870,
      "Ġ1986": 5871,
      "Ġagreed": 5872,
      "ersey": 5873,
      "Ġsimpl": 5874,
      "Ġrom": 5875,
      "Ġrandom": 5876,
      "uation": 5877,
      "Ġarchitecture": 5878,
      "Ġinjury": 5879,
      "emic": 5880,
      "Ġimpacts": 5881,
      "Ġbridge": 5882,
      "ĠEnc": 5883,
      "Ġdisorders": 5884,
      "ET": 5885,
      "Ġclinical": 5886,
      "Ġdivided": 5887,
      "ĠOx": 5888,
      "Ġconclud": 5889,
      "Ġtun": 5890,
      "Ġpret": 5891,
      "ĠSil": 5892,
      "ograp": 5893,
      "Ġgoods": 5894,
      "ĠIS": 5895,
      "asure": 5896,
      "Ġobst": 5897,
      "Ġdetermined": 5898,
      "Ġmedal": 5899,
      "Ġextract": 5900,
      "ypes": 5901,
      "Ġcloud": 5902,
      "ĠLove": 5903,
      "Ġsud": 5904,
      "ĠFood": 5905,
      "ih": 5906,
      "Ġmainly": 5907,
      "Ġedition": 5908,
      "adium": 5909,
      "Ġowned": 5910,
      "Ġmixed": 5911,
      "Ġdocuments": 5912,
      "atically": 5913,
      "Ġorganized": 5914,
      "Col": 5915,
      "Ġalumni": 5916,
      "190": 5917,
      "ĠBoard": 5918,
      "ĠIntroduction": 5919,
      "Ġnp": 5920,
      "Ġkept": 5921,
      "isation": 5922,
      "Ġtransportation": 5923,
      "Ġmo": 5924,
      "Ġ70": 5925,
      "Ġpages": 5926,
      "ĠAdd": 5927,
      "ĠMedical": 5928,
      "Ġdeeply": 5929,
      "Ġexcell": 5930,
      "75": 5931,
      "Gen": 5932,
      "ĠDev": 5933,
      "xiety": 5934,
      "Ġcoal": 5935,
      "ĠDou": 5936,
      "kins": 5937,
      "ĠStr": 5938,
      "Ġimproving": 5939,
      "ora": 5940,
      "Ġthick": 5941,
      "Ġcopy": 5942,
      "igure": 5943,
      "ĠDar": 5944,
      "Ġbacteria": 5945,
      "Ġbottom": 5946,
      "Ġrecognition": 5947,
      "34": 5948,
      "ĠEconom": 5949,
      "Ġaccomp": 5950,
      "ompl": 5951,
      "Ġ2021": 5952,
      "ĠAD": 5953,
      "Ġassistance": 5954,
      "ĠOffice": 5955,
      "32": 5956,
      "Ġexperts": 5957,
      "Ġimplications": 5958,
      "lers": 5959,
      "Ġsector": 5960,
      "cohol": 5961,
      "99": 5962,
      "ye": 5963,
      "Ġemerged": 5964,
      "Ġ90": 5965,
      "Ġgovernments": 5966,
      "Ġpassion": 5967,
      "FL": 5968,
      "Ġacts": 5969,
      "iano": 5970,
      "oston": 5971,
      "ĠLittle": 5972,
      "âĢ¦": 5973,
      "Ġvirtual": 5974,
      "Ġlatter": 5975,
      "Ġrow": 5976,
      "Ġshowing": 5977,
      "Ġclearly": 5978,
      "Ġmotion": 5979,
      "kin": 5980,
      "Ġbehaviors": 5981,
      "Ġcup": 5982,
      "ĠGal": 5983,
      "Ġemerging": 5984,
      "Ġvocals": 5985,
      "ĠOhio": 5986,
      "Ġunexpected": 5987,
      "fit": 5988,
      "More": 5989,
      "Ġvehicles": 5990,
      "riz": 5991,
      "ĠSometimes": 5992,
      "stein": 5993,
      "lishing": 5994,
      "sequent": 5995,
      "âĢ¢": 5996,
      "ĠSecret": 5997,
      "isco": 5998,
      "alysis": 5999,
      "Ġsole": 6000,
      "Ġrig": 6001,
      "Ġcontrovers": 6002,
      "isters": 6003,
      "ĠPo": 6004,
      "Ġholds": 6005,
      "Ġmountain": 6006,
      "ĠIdent": 6007,
      "Ġpictures": 6008,
      "ulty": 6009,
      "ĠMa": 6010,
      "Ġtroops": 6011,
      "Ġnor": 6012,
      "Ġfailed": 6013,
      "Ġsell": 6014,
      "Ġpersist": 6015,
      "Ġadministration": 6016,
      "Ġsudden": 6017,
      "John": 6018,
      "Ġretain": 6019,
      "Ġrank": 6020,
      "Ġpursu": 6021,
      "Ġknowing": 6022,
      "erman": 6023,
      "imal": 6024,
      "ortunately": 6025,
      "ĠEst": 6026,
      "Ġcircumstances": 6027,
      "Ġsucceed": 6028,
      "Ġartistic": 6029,
      "Ġcreatures": 6030,
      "ĠBal": 6031,
      "Ġfine": 6032,
      "Ġinsect": 6033,
      "ĠBig": 6034,
      "ificial": 6035,
      "Ġexciting": 6036,
      "Ġstronger": 6037,
      "Ġconsistent": 6038,
      "Ġsecondary": 6039,
      "Ġrevealed": 6040,
      "Le": 6041,
      "erb": 6042,
      "Ġportion": 6043,
      "ĠWork": 6044,
      "ĠRevolution": 6045,
      "Ġment": 6046,
      "iot": 6047,
      "ĠHistorical": 6048,
      "Ġprominent": 6049,
      "assion": 6050,
      "Ġincreases": 6051,
      "Ġpray": 6052,
      "ĠJohnson": 6053,
      "even": 6054,
      "tainment": 6055,
      "Ġuniversity": 6056,
      "Ġarms": 6057,
      "BA": 6058,
      "ĠCross": 6059,
      "ansas": 6060,
      "Ġgene": 6061,
      "Ġ1984": 6062,
      "ĠEnd": 6063,
      "ĠSummer": 6064,
      "ĠWhe": 6065,
      "Ġrapidly": 6066,
      "Ġtox": 6067,
      "Ġdisorder": 6068,
      "Ġregulations": 6069,
      "ĠAtt": 6070,
      "ĠChildren": 6071,
      "Ġnegot": 6072,
      "Ġneighborhood": 6073,
      "ĠCamb": 6074,
      "Ġfrag": 6075,
      "ĠWales": 6076,
      "ashion": 6077,
      "ogle": 6078,
      "ĠInternet": 6079,
      "ĠModern": 6080,
      "ds": 6081,
      "ĠHIV": 6082,
      "icity": 6083,
      "Ġperman": 6084,
      "Ġcounty": 6085,
      "Ġpowers": 6086,
      "Ġships": 6087,
      "Ġvirus": 6088,
      "Ġemissions": 6089,
      "Ġgirls": 6090,
      "uma": 6091,
      "ĠGard": 6092,
      "ĠEr": 6093,
      "Ġnine": 6094,
      "Ġnutri": 6095,
      "Ġven": 6096,
      "ĊĠĊ": 6097,
      "esson": 6098,
      "ĠWal": 6099,
      "mond": 6100,
      "Ġfailure": 6101,
      "ca": 6102,
      "ads": 6103,
      "Ġstone": 6104,
      "tenance": 6105,
      "Ġmedium": 6106,
      "Ġassociation": 6107,
      "Ġenables": 6108,
      "Ġmorning": 6109,
      "Ġscore": 6110,
      "ygen": 6111,
      "ĠReal": 6112,
      "44": 6113,
      "rier": 6114,
      "Ġtalking": 6115,
      "Ġmeaningful": 6116,
      "Ġdepict": 6117,
      "agues": 6118,
      "ses": 6119,
      "Ġdegrees": 6120,
      "Ġnotice": 6121,
      "Ġcouldn": 6122,
      "rors": 6123,
      "Ġstreet": 6124,
      "Ġsumm": 6125,
      "Ġcombination": 6126,
      "certain": 6127,
      "stone": 6128,
      "Ġaudience": 6129,
      "Ġmoral": 6130,
      "ĠAdv": 6131,
      "Ġunderlying": 6132,
      "Ġinterested": 6133,
      "ĠArg": 6134,
      "Ġentirely": 6135,
      "Ġdoll": 6136,
      "Ġcomponent": 6137,
      "ĠWhy": 6138,
      "Ġlayers": 6139,
      "esh": 6140,
      "100": 6141,
      "ĠLab": 6142,
      "Ġfarmers": 6143,
      "Ġeastern": 6144,
      "Ġtissue": 6145,
      "km": 6146,
      "BS": 6147,
      "Ġpositions": 6148,
      "Ġstyles": 6149,
      "Ġfacing": 6150,
      "Why": 6151,
      "Ġburn": 6152,
      "ĠBattle": 6153,
      "Ġethnic": 6154,
      "gal": 6155,
      "Ġbroadcast": 6156,
      "Ġstatement": 6157,
      "Ġ1985": 6158,
      "Ġentered": 6159,
      "orrow": 6160,
      "Ġmessages": 6161,
      "ĠVis": 6162,
      "Ġmanip": 6163,
      "Ġwisdom": 6164,
      "ĠNavy": 6165,
      "Ġmilk": 6166,
      "overty": 6167,
      "Ġsample": 6168,
      "obe": 6169,
      "ĠPhys": 6170,
      "Ġselection": 6171,
      "Ġflat": 6172,
      "class": 6173,
      "Ġadopted": 6174,
      "ifies": 6175,
      "apping": 6176,
      "Ġawarded": 6177,
      "osm": 6178,
      "ulpt": 6179,
      "never": 6180,
      "Ġregularly": 6181,
      "Ġadap": 6182,
      "ĠFederal": 6183,
      "Ġphilosophy": 6184,
      "ĠLine": 6185,
      "rize": 6186,
      "Ġradiation": 6187,
      "Ġaccompl": 6188,
      "bu": 6189,
      "ĠFour": 6190,
      "ĠJim": 6191,
      "Ġcong": 6192,
      "stream": 6193,
      "ĠRome": 6194,
      "Ġtransc": 6195,
      "ective": 6196,
      "Ġhonor": 6197,
      "Ġwinning": 6198,
      "Ġotherwise": 6199,
      "ĠAsian": 6200,
      "Ġsocieties": 6201,
      "Ġdistingu": 6202,
      "ĠStat": 6203,
      "opping": 6204,
      "ĠData": 6205,
      "Ġphase": 6206,
      "Ġagricultural": 6207,
      "Ġjoint": 6208,
      "ĠBank": 6209,
      "Ġturns": 6210,
      "Ġcul": 6211,
      "Ġwitness": 6212,
      "Ġsought": 6213,
      "Ġcreates": 6214,
      "ĠHome": 6215,
      "Ġbaby": 6216,
      "That": 6217,
      "Ġcognitive": 6218,
      "List": 6219,
      "Ġinfrastructure": 6220,
      "Ġcycle": 6221,
      "ĠLiber": 6222,
      "Ġviews": 6223,
      "Ġgrass": 6224,
      "Ġcrim": 6225,
      "hire": 6226,
      "ĠKey": 6227,
      "Ġwalls": 6228,
      "Ġlargely": 6229,
      "teen": 6230,
      "Ġvictory": 6231,
      "31": 6232,
      "Ġattacks": 6233,
      "Ġcaptiv": 6234,
      "zy": 6235,
      "Ġrealm": 6236,
      "then": 6237,
      "Ġheavily": 6238,
      "faces": 6239,
      "Ã¨": 6240,
      "Ġlocations": 6241,
      "lets": 6242,
      "Ġtum": 6243,
      "Ġfighting": 6244,
      "Ġcalls": 6245,
      "Ġactors": 6246,
      "Ġmulti": 6247,
      "Ġspeak": 6248,
      "Ġpoly": 6249,
      "ĠSpecial": 6250,
      "encing": 6251,
      "Ġdepart": 6252,
      "Ġfab": 6253,
      "Ġmechanisms": 6254,
      "Ġasking": 6255,
      "ĠJersey": 6256,
      "Ġmonitoring": 6257,
      "Ġbatter": 6258,
      "ĠTogether": 6259,
      "Ġadvantage": 6260,
      "Ġpit": 6261,
      "ĠConst": 6262,
      "pet": 6263,
      "Ġsuccessfully": 6264,
      "Ġalike": 6265,
      "Ġhus": 6266,
      "Ġdatab": 6267,
      "Ġpartner": 6268,
      "ĠStudents": 6269,
      "Ġlaunched": 6270,
      "ĠSet": 6271,
      "ags": 6272,
      "46": 6273,
      "Ġcommission": 6274,
      "people": 6275,
      "Ġderived": 6276,
      "Ġadopt": 6277,
      "ĠColumbia": 6278,
      "Ġrelative": 6279,
      "Ġsimultane": 6280,
      "Ġalt": 6281,
      "No": 6282,
      "isp": 6283,
      "Ġunknown": 6284,
      "Ġbranch": 6285,
      "Ġfrequency": 6286,
      "oom": 6287,
      "ipal": 6288,
      "Ġapparent": 6289,
      "Ġmillions": 6290,
      "Ġpra": 6291,
      "Ġembark": 6292,
      "Ġflight": 6293,
      "Ġenthus": 6294,
      "Ġeditor": 6295,
      "Ġagreement": 6296,
      "Ġamounts": 6297,
      "ĠInformation": 6298,
      "Ġparticipate": 6299,
      "ĠScotland": 6300,
      "adel": 6301,
      "MA": 6302,
      "95": 6303,
      "Ġelectricity": 6304,
      "Ġgenerate": 6305,
      "ĠNative": 6306,
      "Ġremove": 6307,
      "iro": 6308,
      "ographical": 6309,
      "Ġstruggle": 6310,
      "ĠPop": 6311,
      "bec": 6312,
      "Ġtap": 6313,
      "rete": 6314,
      "Ġhuge": 6315,
      "Ġdim": 6316,
      "oves": 6317,
      "According": 6318,
      "ycl": 6319,
      "Ġcapture": 6320,
      "Ġdialogue": 6321,
      "Ġ1983": 6322,
      "Ġconscious": 6323,
      "Finally": 6324,
      "Ġparallel": 6325,
      "Ġmaximum": 6326,
      "Ġmit": 6327,
      "Ġmissing": 6328,
      "orking": 6329,
      "Ġofficers": 6330,
      "Ġembracing": 6331,
      "ĠColor": 6332,
      "ĠParliament": 6333,
      "Ġlinked": 6334,
      "Ġscored": 6335,
      "claim": 6336,
      "Ġstands": 6337,
      "Ġcutting": 6338,
      "Ġarray": 6339,
      "arters": 6340,
      "etts": 6341,
      "ogy": 6342,
      "Ġshapes": 6343,
      "Ġkid": 6344,
      "Ġjobs": 6345,
      "Ġinvent": 6346,
      "Ġdriving": 6347,
      "Ġvehicle": 6348,
      "ĠEth": 6349,
      "They": 6350,
      "Ġformal": 6351,
      "Ġdescribe": 6352,
      "Ġcert": 6353,
      "Ġlooks": 6354,
      "Ġmurder": 6355,
      "Ġmagazine": 6356,
      "ĠMah": 6357,
      "English": 6358,
      "aked": 6359,
      "Ġdefine": 6360,
      "Ġastron": 6361,
      "Ġoverl": 6362,
      "Ġthorough": 6363,
      "Ġsmart": 6364,
      "Ġborder": 6365,
      "enny": 6366,
      "Ġacquired": 6367,
      "ĠFred": 6368,
      "Ġassessment": 6369,
      "Ġthereby": 6370,
      "Ġvolunte": 6371,
      "akistan": 6372,
      "Ġtreated": 6373,
      "mun": 6374,
      "Ġlisten": 6375,
      "500": 6376,
      "Åį": 6377,
      "cel": 6378,
      "Ġshel": 6379,
      "Ġengaged": 6380,
      "Ġcraft": 6381,
      "Ġmeat": 6382,
      "Ġpip": 6383,
      "Ġseasons": 6384,
      "arn": 6385,
      "Ġprint": 6386,
      "Ġbasketball": 6387,
      "Ġpair": 6388,
      "Early": 6389,
      "Ġbreast": 6390,
      "Ġenabling": 6391,
      "ĠMichigan": 6392,
      "Ġconcern": 6393,
      "Ġpaid": 6394,
      "ĠGree": 6395,
      "ĠCoast": 6396,
      "OU": 6397,
      "ĠRights": 6398,
      "Ġsubsequent": 6399,
      "ĠUSA": 6400,
      "Ġ1979": 6401,
      "Ġsales": 6402,
      "Ġrough": 6403,
      "ĠLee": 6404,
      "Ġcontributions": 6405,
      "Ġgenes": 6406,
      "ĠRout": 6407,
      "2005": 6408,
      "ĠMen": 6409,
      "Ġsomew": 6410,
      "ĠReview": 6411,
      "ati": 6412,
      "Ġstarts": 6413,
      "Ġcollected": 6414,
      "do": 6415,
      "Ġvs": 6416,
      "ĠOpen": 6417,
      "Ġcrew": 6418,
      "ipping": 6419,
      "umes": 6420,
      "Ġbatt": 6421,
      "Ġshoot": 6422,
      "Ġcrime": 6423,
      "Ġparticles": 6424,
      "Ġattended": 6425,
      "ector": 6426,
      "ĠExper": 6427,
      "ects": 6428,
      "Ġexpectations": 6429,
      "ali": 6430,
      "ĠMot": 6431,
      "Ġcurious": 6432,
      "ĠDutch": 6433,
      "wan": 6434,
      "Ġfloor": 6435,
      "She": 6436,
      "ĠCarl": 6437,
      "Ġanxiety": 6438,
      "ĠIndigenous": 6439,
      "Ġinherent": 6440,
      "Ġauthorities": 6441,
      "ĠNations": 6442,
      "Ġencourages": 6443,
      "Ġ1982": 6444,
      "ĠCr": 6445,
      "yt": 6446,
      "ilation": 6447,
      "49": 6448,
      "Ġtechnological": 6449,
      "Ġconventional": 6450,
      "Ġsinger": 6451,
      "ĠRom": 6452,
      "color": 6453,
      "Ġcomprehensive": 6454,
      "rine": 6455,
      "Ġprices": 6456,
      "usc": 6457,
      "Ġsnow": 6458,
      "Ġuniverse": 6459,
      "ĠRef": 6460,
      "Ġnarrow": 6461,
      "Ġunion": 6462,
      "Ġlesson": 6463,
      "ĠPub": 6464,
      "achus": 6465,
      "Ġthin": 6466,
      "Ġstanding": 6467,
      "wing": 6468,
      "Ġseemed": 6469,
      "world": 6470,
      "Ġprocedures": 6471,
      "ĠBible": 6472,
      "idential": 6473,
      "ĠGeorgia": 6474,
      "Ġpainting": 6475,
      "ĠBul": 6476,
      "Ġdesired": 6477,
      "wo": 6478,
      "Ġprompt": 6479,
      "))": 6480,
      "Ġintellectual": 6481,
      "Ġhour": 6482,
      "Ġrailway": 6483,
      "active": 6484,
      "Ġorganic": 6485,
      "Ġeld": 6486,
      "Ġindicate": 6487,
      "ĠBefore": 6488,
      "iat": 6489,
      "Ġyounger": 6490,
      "ĠBoston": 6491,
      "Not": 6492,
      "Ġanalyze": 6493,
      "stra": 6494,
      "ĠTop": 6495,
      "Ġamidst": 6496,
      "ĠMean": 6497,
      "ek": 6498,
      "Ġexamination": 6499,
      "CO": 6500,
      "Ġinitiatives": 6501,
      "hered": 6502,
      "Ġflowers": 6503,
      "perial": 6504,
      "ST": 6505,
      "Ġtall": 6506,
      "Ġroot": 6507,
      "ricts": 6508,
      "Ġelectronic": 6509,
      "Ġdin": 6510,
      "awa": 6511,
      "icon": 6512,
      "Ġpoetry": 6513,
      "ĠViet": 6514,
      "ĠEnergy": 6515,
      "center": 6516,
      "Under": 6517,
      "racy": 6518,
      "Ġclassroom": 6519,
      "IA": 6520,
      "that": 6521,
      "urrent": 6522,
      "Ġsenior": 6523,
      "nament": 6524,
      "Ġcontrolled": 6525,
      "Ġhappy": 6526,
      "Ġvegetables": 6527,
      "Ġedge": 6528,
      "gu": 6529,
      "Ġprofound": 6530,
      "En": 6531,
      "unning": 6532,
      "stood": 6533,
      "Ġterritory": 6534,
      "uous": 6535,
      "Ġ45": 6536,
      "Don": 6537,
      "Ġstock": 6538,
      "ĠMur": 6539,
      "Ġwaiting": 6540,
      "Ġuns": 6541,
      "Ġaf": 6542,
      "Ġ500": 6543,
      "roc": 6544,
      "Ġsurgery": 6545,
      "Ġaccident": 6546,
      "Ġhousing": 6547,
      "andon": 6548,
      "Ġswim": 6549,
      "Ġcentre": 6550,
      "ocation": 6551,
      "Ġasp": 6552,
      "Ġdie": 6553,
      "Ġaccepted": 6554,
      "Ġphone": 6555,
      "bury": 6556,
      "Ġbone": 6557,
      "Ps": 6558,
      "ĠIran": 6559,
      "ĠForest": 6560,
      "avors": 6561,
      "ĠLabor": 6562,
      "Ġcommunicate": 6563,
      "Ġempower": 6564,
      "Ġagriculture": 6565,
      "Ġboy": 6566,
      "ĠSup": 6567,
      "ĠCommunity": 6568,
      "Ġdomestic": 6569,
      "long": 6570,
      "ĠLiter": 6571,
      "Ġimmune": 6572,
      "real": 6573,
      "Ġhorse": 6574,
      "Ġoccasion": 6575,
      "Ġstream": 6576,
      "Ġeggs": 6577,
      "uten": 6578,
      "sen": 6579,
      "Ġremarkable": 6580,
      "Ġproducing": 6581,
      "Ġyellow": 6582,
      "Ġperforming": 6583,
      "Ġmuscle": 6584,
      "Ġwalking": 6585,
      "inois": 6586,
      "Ġchair": 6587,
      "Ġagency": 6588,
      "2007": 6589,
      "Ġconflicts": 6590,
      "Ġholding": 6591,
      "ĠMax": 6592,
      "iders": 6593,
      "Ġauthent": 6594,
      "roke": 6595,
      "Ġsalt": 6596,
      "ĠLuc": 6597,
      "Ġarrest": 6598,
      "oto": 6599,
      "ĠTherefore": 6600,
      "itudes": 6601,
      "Ġmort": 6602,
      "ugby": 6603,
      "ĠLim": 6604,
      "Ġnewly": 6605,
      "Ġtele": 6606,
      "Ġax": 6607,
      "Ġliquid": 6608,
      "ĠCam": 6609,
      "Ġtreatments": 6610,
      "Ġmyth": 6611,
      "Ã³n": 6612,
      "Ġmachines": 6613,
      "Ġlibr": 6614,
      "Ġskill": 6615,
      "ĠScient": 6616,
      "Ġagencies": 6617,
      "telling": 6618,
      "Ġreject": 6619,
      "ĠSaf": 6620,
      "Ġclaimed": 6621,
      "Ġextreme": 6622,
      "Ġfunding": 6623,
      "ĠSeries": 6624,
      "osal": 6625,
      "Ġcomposed": 6626,
      "Ġmyster": 6627,
      "ĠGr": 6628,
      "78": 6629,
      "Ġdiscussing": 6630,
      "Ġemployees": 6631,
      "ĠVer": 6632,
      "achusetts": 6633,
      "Ġtheore": 6634,
      "Ġfoss": 6635,
      "Ġoptimal": 6636,
      "Ġinvestment": 6637,
      "Ġbass": 6638,
      "Ġsamples": 6639,
      "Ġsilver": 6640,
      "65": 6641,
      "Ġmal": 6642,
      "lines": 6643,
      "heim": 6644,
      "Ġversions": 6645,
      "Ġcatch": 6646,
      "Ġseat": 6647,
      "Ġsort": 6648,
      "rie": 6649,
      "ila": 6650,
      "Ġofficer": 6651,
      "Ġstages": 6652,
      "Ġwait": 6653,
      "Ġsport": 6654,
      "Ġ1981": 6655,
      "def": 6656,
      "Ġbright": 6657,
      "asters": 6658,
      "ĠBlue": 6659,
      "Ġtwice": 6660,
      "aria": 6661,
      "Ġschem": 6662,
      "chers": 6663,
      "Ġfaster": 6664,
      "Ġinvestigation": 6665,
      "Ġsister": 6666,
      "Ġexpansion": 6667,
      "ĠEdward": 6668,
      "Ġintervention": 6669,
      "Ġneighb": 6670,
      "ĠWin": 6671,
      "Ġ1976": 6672,
      "Ġstret": 6673,
      "ĠMid": 6674,
      "ĠMedicine": 6675,
      "Ġproteins": 6676,
      "%)": 6677,
      "EM": 6678,
      "inding": 6679,
      "'m": 6680,
      "ĠClin": 6681,
      "Ġconsidering": 6682,
      "Ġbill": 6683,
      "ĠKent": 6684,
      "Ġwaves": 6685,
      "peror": 6686,
      "Ġ2022": 6687,
      "Ġreaction": 6688,
      "Ġpreserving": 6689,
      "Ġpersons": 6690,
      "Ġsolve": 6691,
      "Ġrepresenting": 6692,
      "ester": 6693,
      "Ġcommitment": 6694,
      "Ġinner": 6695,
      "ĠStudy": 6696,
      "inson": 6697,
      "ĠFrancisco": 6698,
      "Ġoxygen": 6699,
      "Ġinstitution": 6700,
      "ĠGall": 6701,
      "ĠPortug": 6702,
      "lease": 6703,
      "Ġsequence": 6704,
      "Ġdiabetes": 6705,
      "ĠHor": 6706,
      "ading": 6707,
      "ĠJac": 6708,
      "ĠQueen": 6709,
      "occer": 6710,
      "Ġcombat": 6711,
      "Ġsuitable": 6712,
      "Although": 6713,
      "ĠMicro": 6714,
      "Ġreturns": 6715,
      "sk": 6716,
      "ĠFinally": 6717,
      "Ġindependence": 6718,
      "outs": 6719,
      "weight": 6720,
      "ĠSpe": 6721,
      "Ġfacts": 6722,
      "Ġalcohol": 6723,
      "Ġoption": 6724,
      "Ġgall": 6725,
      "Ġcorner": 6726,
      "Ġnu": 6727,
      "ĠPsych": 6728,
      "Ġresponses": 6729,
      "Ġseeds": 6730,
      "ĠJeff": 6731,
      "Ġsatell": 6732,
      "ĠMov": 6733,
      "'.": 6734,
      "coming": 6735,
      "Ġwave": 6736,
      "Ġspeaking": 6737,
      "Ġdoctors": 6738,
      "hat": 6739,
      "ĠFilm": 6740,
      "Ġbiological": 6741,
      "Ġdecide": 6742,
      "Ġunl": 6743,
      "ĠEp": 6744,
      "Ġhabitat": 6745,
      "Ġsail": 6746,
      "ĠÎ": 6747,
      "ommod": 6748,
      "Ġcart": 6749,
      "Ġproducer": 6750,
      "Ġ1972": 6751,
      "illy": 6752,
      "Ġdemonstrate": 6753,
      "Ġ1930": 6754,
      "Ġconversations": 6755,
      "abeth": 6756,
      "ĠConnect": 6757,
      "Ġfootballers": 6758,
      "2004": 6759,
      "Ġdynamic": 6760,
      "],": 6761,
      "Ġshowc": 6762,
      "ĠSand": 6763,
      "Ġinstruments": 6764,
      "arr": 6765,
      "pat": 6766,
      "compass": 6767,
      "ĠUr": 6768,
      "Ġmarkets": 6769,
      "rons": 6770,
      "Ġadm": 6771,
      "Ġfiles": 6772,
      "isted": 6773,
      "Ġkil": 6774,
      "ĠAcc": 6775,
      "ĠThree": 6776,
      "Ġrecording": 6777,
      "Ġcolonial": 6778,
      "ĠProfessor": 6779,
      "ĠAdminist": 6780,
      "Ġseed": 6781,
      "zen": 6782,
      "Ġcouple": 6783,
      "Ġrestrict": 6784,
      "Ġmoments": 6785,
      "Ġnoticed": 6786,
      "ulum": 6787,
      "arks": 6788,
      "ĠJul": 6789,
      "ĠWall": 6790,
      "Ġcomplexity": 6791,
      "Ġsufficient": 6792,
      "Ġkill": 6793,
      "ĠEnter": 6794,
      "Ġresulted": 6795,
      "Ġmanufactur": 6796,
      "Cont": 6797,
      "Ġconstructed": 6798,
      "LA": 6799,
      "eli": 6800,
      "friend": 6801,
      "ĠBuilding": 6802,
      "Ġideal": 6803,
      "ĠNASA": 6804,
      "ossible": 6805,
      "ĠOrig": 6806,
      "Ġphr": 6807,
      "istered": 6808,
      "ounder": 6809,
      "Ġtransition": 6810,
      "Ġaccounts": 6811,
      "ucky": 6812,
      "Ġassign": 6813,
      "Ġpoverty": 6814,
      "Ġclubs": 6815,
      "Ġ1974": 6816,
      "Ġtracks": 6817,
      "Ġdangerous": 6818,
      "Ġ1978": 6819,
      "Ġur": 6820,
      "Ġabuse": 6821,
      "ĠTreat": 6822,
      "Ġtheme": 6823,
      "Ġvibrant": 6824,
      "Ġdestroyed": 6825,
      "Ġmaintenance": 6826,
      "Ġpersonnel": 6827,
      "Ġcharacterized": 6828,
      "Ġpasseng": 6829,
      "Ġgrown": 6830,
      "Ġpolitician": 6831,
      "TS": 6832,
      "Ġsan": 6833,
      "ordinary": 6834,
      "Ġrecommended": 6835,
      "Ġchannel": 6836,
      "Ġadvice": 6837,
      "Ġinteraction": 6838,
      "cluding": 6839,
      "Lesson": 6840,
      "Ġcredit": 6841,
      "ĠRadio": 6842,
      "pan": 6843,
      "Ġcomposition": 6844,
      "Ġissued": 6845,
      "yan": 6846,
      "ching": 6847,
      "aph": 6848,
      "roduct": 6849,
      "Ġtopic": 6850,
      "Ġobtained": 6851,
      "alse": 6852,
      "Ġunus": 6853,
      "Ġinsight": 6854,
      "Ġinstruction": 6855,
      "ĠMake": 6856,
      "inem": 6857,
      "Ġreson": 6858,
      "Ġmassive": 6859,
      "Ġpollution": 6860,
      "Ġsculpt": 6861,
      "arity": 6862,
      "Ġquarter": 6863,
      "va": 6864,
      "onia": 6865,
      "Ġexposed": 6866,
      "een": 6867,
      "Ġwants": 6868,
      "Ġinn": 6869,
      "Ġexists": 6870,
      "Ġextensive": 6871,
      "ĠCurrent": 6872,
      "Ġexcellent": 6873,
      "ĠNon": 6874,
      "ga": 6875,
      "CD": 6876,
      "opped": 6877,
      "iox": 6878,
      "ĠLight": 6879,
      "Ġbrown": 6880,
      "ĠVen": 6881,
      "point": 6882,
      "ĠCro": 6883,
      "ĠWay": 6884,
      "rm": 6885,
      "abits": 6886,
      "Trans": 6887,
      "ĠMassachusetts": 6888,
      "Ġmyst": 6889,
      "irt": 6890,
      "ĠBuddh": 6891,
      "ĠEnvironmental": 6892,
      "Ġantib": 6893,
      "Ġsubs": 6894,
      "Ġoperated": 6895,
      "Ġrequiring": 6896,
      "ĠExamples": 6897,
      "eek": 6898,
      "Ġdefeated": 6899,
      "ĠHot": 6900,
      "imental": 6901,
      "Ġchronic": 6902,
      "Ġargument": 6903,
      "cell": 6904,
      "Ġdemonstrated": 6905,
      "Ġraise": 6906,
      "Ġmusicians": 6907,
      "Ġ180": 6908,
      "lamm": 6909,
      "ĠOxford": 6910,
      "ĠCreek": 6911,
      "ĠDirector": 6912,
      "such": 6913,
      "rip": 6914,
      "eries": 6915,
      "Ġextremely": 6916,
      "Ġtaste": 6917,
      "Ġdepression": 6918,
      "Ġvote": 6919,
      "Ġdiscussed": 6920,
      "ĠPolit": 6921,
      "Ġplanned": 6922,
      "Ġcaptured": 6923,
      "Ġfruits": 6924,
      "ĠHon": 6925,
      "ĠEarly": 6926,
      "Ġconcerning": 6927,
      "Ġends": 6928,
      "Ġactor": 6929,
      "Ġmagical": 6930,
      "Ġhusband": 6931,
      "ĠIllinois": 6932,
      "Ġimprovement": 6933,
      "Ġdrawn": 6934,
      "Ġactress": 6935,
      "Ġdepartment": 6936,
      "ĠJo": 6937,
      "Ġchain": 6938,
      "aka": 6939,
      "Ġelectrical": 6940,
      "ĠPakistan": 6941,
      "Ġchart": 6942,
      "Ġcrops": 6943,
      "spec": 6944,
      "Ġwondered": 6945,
      "Ġfolk": 6946,
      "bb": 6947,
      "Med": 6948,
      "ĠField": 6949,
      "ĠFamily": 6950,
      "Ġperce": 6951,
      "Ġsched": 6952,
      "Ġindex": 6953,
      "Ġinhabit": 6954,
      "kes": 6955,
      "oven": 6956,
      "Ġenhancing": 6957,
      "Ġflo": 6958,
      "Ġjump": 6959,
      "organ": 6960,
      "ackson": 6961,
      "ilms": 6962,
      "Ġhistoric": 6963,
      "ieval": 6964,
      "oples": 6965,
      "Ġacknowled": 6966,
      "Ġwildlife": 6967,
      "Ġparticipation": 6968,
      "ĠDig": 6969,
      "Ġdiscrimination": 6970,
      "Äĩ": 6971,
      "Ġdepth": 6972,
      "Ġhoriz": 6973,
      "uracy": 6974,
      "Ġsimultaneously": 6975,
      "ĠPen": 6976,
      "empl": 6977,
      "Ġabandon": 6978,
      "Or": 6979,
      "Ġ1975": 6980,
      "Ġcraf": 6981,
      "Notes": 6982,
      "Ġrelax": 6983,
      "operation": 6984,
      "Ġachieved": 6985,
      "Ġforests": 6986,
      "Ġcontributed": 6987,
      "Ġgreatest": 6988,
      "Ġexplo": 6989,
      "chen": 6990,
      "inder": 6991,
      "ampion": 6992,
      "otal": 6993,
      "Ġwellbeing": 6994,
      "ture": 6995,
      "85": 6996,
      "ĠPhilipp": 6997,
      "Ġplastic": 6998,
      "Ġscript": 6999,
      "ĠChief": 7000,
      "Despite": 7001,
      "holders": 7002,
      "Ġsynd": 7003,
      "Ġtwenty": 7004,
      "Ġ1940": 7005,
      "adelph": 7006,
      "fulness": 7007,
      "Ġturning": 7008,
      "Ġprepare": 7009,
      "Ġinspiration": 7010,
      "Ġtrip": 7011,
      "Ġreduction": 7012,
      "Ġcustomers": 7013,
      "inals": 7014,
      "ĠUlt": 7015,
      "Ġentry": 7016,
      "shire": 7017,
      "Ġbudget": 7018,
      "Ġhearing": 7019,
      "ĠStan": 7020,
      "Ġwet": 7021,
      "ĠDom": 7022,
      "ĠEll": 7023,
      "Ġtypical": 7024,
      "ĠJones": 7025,
      "Ġproceed": 7026,
      "Ġassigned": 7027,
      "Ġcouncil": 7028,
      "Ġherself": 7029,
      "ĠControl": 7030,
      "ctic": 7031,
      "Ġrespectively": 7032,
      "Ġsend": 7033,
      "Ġsensitive": 7034,
      "Ġintrig": 7035,
      "owing": 7036,
      "Ġ<": 7037,
      "Ġ1973": 7038,
      "fall": 7039,
      "ropical": 7040,
      "Ġsignals": 7041,
      "Ġstudio": 7042,
      "Ġafford": 7043,
      "Ġintroduction": 7044,
      "Ġwhereas": 7045,
      "Ġfunds": 7046,
      "Ġfocuses": 7047,
      "Ġphotograph": 7048,
      "Ġsections": 7049,
      "found": 7050,
      "Ġkinds": 7051,
      "ĠFestival": 7052,
      "Ġfluid": 7053,
      "Ġdoor": 7054,
      "ĠCard": 7055,
      "unior": 7056,
      "Ġstake": 7057,
      "Ġpracticing": 7058,
      "aped": 7059,
      "Ġtack": 7060,
      "ĠLast": 7061,
      "ĠConsequently": 7062,
      "Ġcontributing": 7063,
      "Ġod": 7064,
      "Ġfacilitate": 7065,
      "Ġspend": 7066,
      "burgh": 7067,
      "Many": 7068,
      "Ġclassic": 7069,
      "$$": 7070,
      "aska": 7071,
      "adelphia": 7072,
      "Ġsin": 7073,
      "Ġemergency": 7074,
      "ĠGar": 7075,
      "Ġ1977": 7076,
      "Ġcerem": 7077,
      "ĠAge": 7078,
      "ĠFer": 7079,
      "Ġseeing": 7080,
      "Ġslowly": 7081,
      "Ġinfluenced": 7082,
      "Ġclassical": 7083,
      "Car": 7084,
      "Ġadequ": 7085,
      "Ġbrings": 7086,
      "Ġ1968": 7087,
      "Ġstring": 7088,
      "Ġconvey": 7089,
      "....": 7090,
      "Ġimplementation": 7091,
      "Ġnurs": 7092,
      "Ġcompassion": 7093,
      "FC": 7094,
      "acles": 7095,
      "Ġconfidence": 7096,
      "Ġcontinuous": 7097,
      "Ġrecovery": 7098,
      "Ġthreats": 7099,
      "oli": 7100,
      "antry": 7101,
      "ĠEncou": 7102,
      "Ġresolution": 7103,
      "Ġfeedback": 7104,
      "Ġexplan": 7105,
      "Ġsky": 7106,
      "Ġhundreds": 7107,
      "Key": 7108,
      "aya": 7109,
      "Com": 7110,
      "Ġaffecting": 7111,
      "Ġwhenever": 7112,
      "ĠJr": 7113,
      "vity": 7114,
      "norm": 7115,
      "ĠFact": 7116,
      "Ġsymbols": 7117,
      "ĠFar": 7118,
      "Ġhandle": 7119,
      "everal": 7120,
      "Ġuncertain": 7121,
      "Ġstem": 7122,
      "ĠCorn": 7123,
      "ictional": 7124,
      "Ġsurvival": 7125,
      "Ġsoul": 7126,
      "uan": 7127,
      "Ġdefinition": 7128,
      "ĠConstitution": 7129,
      "Ġtales": 7130,
      "Ġpassing": 7131,
      "42": 7132,
      "ĠRepresent": 7133,
      "Ġerror": 7134,
      "Ġconnecting": 7135,
      "Ġtens": 7136,
      "ĠWilliams": 7137,
      "ĠJustice": 7138,
      "ĠÐ": 7139,
      "Ġabsorb": 7140,
      "Ġpreferences": 7141,
      "Ġdemands": 7142,
      "Ġrobust": 7143,
      "Ġmatrix": 7144,
      "Ġcategories": 7145,
      "ĠSund": 7146,
      "osite": 7147,
      "Ġproport": 7148,
      "cycl": 7149,
      "Ġstrict": 7150,
      "Ġsweet": 7151,
      "Ġtur": 7152,
      "ĠDie": 7153,
      "Ġtransp": 7154,
      "Ġwindow": 7155,
      "EL": 7156,
      "ĠNetwork": 7157,
      "Ġexpressed": 7158,
      "ĠBack": 7159,
      "Ġadvancements": 7160,
      "ĠJam": 7161,
      "yal": 7162,
      "har": 7163,
      "Ġhumanity": 7164,
      "Ġeveryday": 7165,
      "Ġmerg": 7166,
      "Ġexpanded": 7167,
      "ubb": 7168,
      "Ġaccommod": 7169,
      "venile": 7170,
      "ĠMaster": 7171,
      "Ġvan": 7172,
      "41": 7173,
      "indu": 7174,
      "Ġsed": 7175,
      "Ġdevelopments": 7176,
      "Ġdecor": 7177,
      "ĠOk": 7178,
      "ptions": 7179,
      "raq": 7180,
      "55": 7181,
      "Ġlistening": 7182,
      "------------": 7183,
      "ĠSong": 7184,
      "Ġvot": 7185,
      "Ġshift": 7186,
      "Ġneut": 7187,
      "Ġreaching": 7188,
      "ĠConference": 7189,
      "Ġrepeated": 7190,
      "88": 7191,
      "Ġ1945": 7192,
      "lean": 7193,
      "ĠAlbert": 7194,
      "Ġinfluences": 7195,
      "ĠAbout": 7196,
      "2003": 7197,
      "othe": 7198,
      "espread": 7199,
      "Ġmanif": 7200,
      "ĠIslamic": 7201,
      "Ġpossibilities": 7202,
      "Ġposit": 7203,
      "lav": 7204,
      "Ġracial": 7205,
      "Ġhaz": 7206,
      "Ġseemingly": 7207,
      "Ġpsychological": 7208,
      "Man": 7209,
      "EA": 7210,
      "Ġspok": 7211,
      "ĠCub": 7212,
      "ĠStation": 7213,
      "lick": 7214,
      "arant": 7215,
      "rieved": 7216,
      "Ġske": 7217,
      "Ġpreserve": 7218,
      "Ġfocusing": 7219,
      "SS": 7220,
      "ymph": 7221,
      "Ġunderstood": 7222,
      "Ġexercises": 7223,
      "awn": 7224,
      "Ġlots": 7225,
      "2008": 7226,
      "Ġlaunch": 7227,
      "Ġproperly": 7228,
      "Ġsupplies": 7229,
      "Ġconfir": 7230,
      "Ġfashion": 7231,
      "Ġextraordinary": 7232,
      "ĠBroad": 7233,
      "Ġnob": 7234,
      "ĠCorpor": 7235,
      "anes": 7236,
      "ĠRam": 7237,
      "Ġvac": 7238,
      "Ġowner": 7239,
      "asty": 7240,
      "ĠAlice": 7241,
      "Ġsplit": 7242,
      "Ġoperate": 7243,
      "etime": 7244,
      "Ġweapons": 7245,
      "Ã±": 7246,
      "Ġmath": 7247,
      "ĠNY": 7248,
      "orph": 7249,
      "irty": 7250,
      "ĠCharl": 7251,
      "Ġregul": 7252,
      "thur": 7253,
      "present": 7254,
      "ĠAff": 7255,
      "Ġinstructions": 7256,
      "net": 7257,
      "stract": 7258,
      "Ġlingu": 7259,
      "Ġ1920": 7260,
      "ventions": 7261,
      "ĠMaybe": 7262,
      "eenth": 7263,
      "Ġencompass": 7264,
      "ĠAtlantic": 7265,
      "ocracy": 7266,
      "ĠSupreme": 7267,
      "2010": 7268,
      "Ġcurric": 7269,
      "ĠHung": 7270,
      "rets": 7271,
      "ĠPrince": 7272,
      "ĠShow": 7273,
      "2002": 7274,
      "ĠBase": 7275,
      "izabeth": 7276,
      "My": 7277,
      "Ġmanner": 7278,
      "ela": 7279,
      "Ġartificial": 7280,
      "Ġconstitution": 7281,
      "Ġexplored": 7282,
      "Ġnewspaper": 7283,
      "66": 7284,
      "ĠBern": 7285,
      "ĠCentre": 7286,
      "ĠNature": 7287,
      "Ġvariables": 7288,
      "Comm": 7289,
      "Ġlung": 7290,
      "Ġmatches": 7291,
      "Ġaudiences": 7292,
      "Ġforming": 7293,
      "Ġthanks": 7294,
      "Ġdebate": 7295,
      "ĠKen": 7296,
      "ima": 7297,
      "ĠTeam": 7298,
      "Ġhealing": 7299,
      "Ġconversation": 7300,
      "Ġanalyzing": 7301,
      "Ġexecutive": 7302,
      "Ġ1971": 7303,
      "Throughout": 7304,
      "Ġstability": 7305,
      "ĠOcean": 7306,
      "Ġinspire": 7307,
      "Ġreceiving": 7308,
      "Ġattempts": 7309,
      "ocking": 7310,
      "Ġindeed": 7311,
      "ĠLater": 7312,
      "RI": 7313,
      "Ġrely": 7314,
      "mod": 7315,
      "Ġvariable": 7316,
      "Ġ1969": 7317,
      "ĠFire": 7318,
      "Ġdescribes": 7319,
      "ĠMajor": 7320,
      "Ġlimits": 7321,
      "Ġequival": 7322,
      "ĠHu": 7323,
      "bar": 7324,
      "National": 7325,
      "urric": 7326,
      "ĠHy": 7327,
      "Ġtheories": 7328,
      "Ġnorms": 7329,
      "ĠChristianity": 7330,
      "Ġcenters": 7331,
      "Ġharmful": 7332,
      "Ġdiam": 7333,
      "Ġteen": 7334,
      "Ġinjuries": 7335,
      "Ġmarginal": 7336,
      "Ġfav": 7337,
      "Ġblocks": 7338,
      "%.": 7339,
      "ĠKorea": 7340,
      "ĠPot": 7341,
      "Ġscenes": 7342,
      "umin": 7343,
      "43": 7344,
      "Ġcrow": 7345,
      "una": 7346,
      "ĠSciences": 7347,
      "Ġadvert": 7348,
      "Ġmutual": 7349,
      "Ġcommitted": 7350,
      "ĠGre": 7351,
      "Ġmarine": 7352,
      "aver": 7353,
      "ĠBusiness": 7354,
      "Ġunders": 7355,
      "opher": 7356,
      "Ġemail": 7357,
      "amber": 7358,
      "Example": 7359,
      "Ġconsideration": 7360,
      "Ġsick": 7361,
      "ĠGlobal": 7362,
      "connect": 7363,
      "iy": 7364,
      "ĠEff": 7365,
      "ĠLearning": 7366,
      "worth": 7367,
      "Ġlens": 7368,
      "Ġcrisis": 7369,
      "Rem": 7370,
      "ĠScottish": 7371,
      "2001": 7372,
      "Ġimmediate": 7373,
      "Ġextent": 7374,
      "unct": 7375,
      "estyle": 7376,
      "ĠVan": 7377,
      "Ġstores": 7378,
      "Ġwidespread": 7379,
      "Ġacting": 7380,
      "itzer": 7381,
      "ĠServices": 7382,
      "ĠHoly": 7383,
      "Ġusage": 7384,
      "Ġspecialized": 7385,
      "'d": 7386,
      "Ġ)": 7387,
      "Ġengineers": 7388,
      "Ġbaseball": 7389,
      "Ġportray": 7390,
      "ĠGirl": 7391,
      "Char": 7392,
      "Ġjur": 7393,
      "Ġfinds": 7394,
      "Ġdispar": 7395,
      "Ġopinion": 7396,
      "Ġclust": 7397,
      "ĠOtt": 7398,
      "Ġinsurance": 7399,
      "ĠAlexander": 7400,
      "dem": 7401,
      "ressing": 7402,
      "log": 7403,
      "Ġhyper": 7404,
      "Ġlatest": 7405,
      "Ġbarriers": 7406,
      "omer": 7407,
      "Ġfly": 7408,
      "ĠAI": 7409,
      "oz": 7410,
      "Ġbeings": 7411,
      "98": 7412,
      "Ġsubstantial": 7413,
      "yer": 7414,
      "Ġrestaur": 7415,
      "ĠBir": 7416,
      "istant": 7417,
      "ĠChall": 7418,
      "Ġvide": 7419,
      "iology": 7420,
      "Ġdism": 7421,
      "Ġlosing": 7422,
      "Ġsuffered": 7423,
      "Ġminds": 7424,
      "ĠJackson": 7425,
      "Ġagree": 7426,
      "onial": 7427,
      "ĠNaz": 7428,
      "ais": 7429,
      "Ġbear": 7430,
      "Ġdrama": 7431,
      "Mar": 7432,
      "Ġsubsequently": 7433,
      "rac": 7434,
      "Ġinstrument": 7435,
      "Ġorient": 7436,
      "Ġchemicals": 7437,
      "Ġnerv": 7438,
      "76": 7439,
      "uis": 7440,
      "Ġjoy": 7441,
      "Ġcaptivating": 7442,
      "ĠSat": 7443,
      "Ġcourses": 7444,
      "Ġ1964": 7445,
      "free": 7446,
      "Ġprotected": 7447,
      "mm": 7448,
      "Ġdeclared": 7449,
      "lessly": 7450,
      "Ġdealing": 7451,
      "ĠBooks": 7452,
      "Ġprinciple": 7453,
      "Ġgrade": 7454,
      "Ġenemy": 7455,
      "ĠTal": 7456,
      "estion": 7457,
      "Ġaffects": 7458,
      "aturally": 7459,
      "Ġbroken": 7460,
      "Ġchildhood": 7461,
      "Ġdetailed": 7462,
      "using": 7463,
      "ĠExt": 7464,
      "Ġmagic": 7465,
      "Most": 7466,
      "2009": 7467,
      "Ġwithd": 7468,
      "lights": 7469,
      "Ġregardless": 7470,
      "Ġshell": 7471,
      "Ġforth": 7472,
      "Ġ32": 7473,
      "ĠLew": 7474,
      "96": 7475,
      "Ġearned": 7476,
      "Ġindustries": 7477,
      "ja": 7478,
      "Ġhabits": 7479,
      "Our": 7480,
      "Comp": 7481,
      "Ġmeals": 7482,
      "Ġ1967": 7483,
      "Ġsupports": 7484,
      "Ġplate": 7485,
      "Gu": 7486,
      "ĠFair": 7487,
      "olis": 7488,
      "Care": 7489,
      "rot": 7490,
      "forcement": 7491,
      "Ġexperiments": 7492,
      "py": 7493,
      "Ġmanufacturing": 7494,
      "Ġordered": 7495,
      "Ġ36": 7496,
      "Ġassistant": 7497,
      "ĠAssembly": 7498,
      "OT": 7499,
      "Ġevolved": 7500,
      "han": 7501,
      "Ġfacility": 7502,
      "Ġprovince": 7503,
      "Ġelectron": 7504,
      "Ġrefuge": 7505,
      "Ġintent": 7506,
      "ishment": 7507,
      "Ġwire": 7508,
      "Ġflour": 7509,
      "Ġlandscapes": 7510,
      "Ġbutter": 7511,
      "ĠNorm": 7512,
      "Ġincorporate": 7513,
      "Ġprotecting": 7514,
      "Ġnan": 7515,
      "ĠAndrew": 7516,
      "Ġgent": 7517,
      "Ġclothing": 7518,
      "Ġrequest": 7519,
      "uts": 7520,
      "Ġfriendly": 7521,
      "Ġtherap": 7522,
      "ĠNatural": 7523,
      "ells": 7524,
      "Ġretired": 7525,
      "Ġdefense": 7526,
      "Ġguard": 7527,
      "Ġpig": 7528,
      "Ġaccuracy": 7529,
      "Ab": 7530,
      "neys": 7531,
      "Ġboys": 7532,
      "Dr": 7533,
      "Ġkit": 7534,
      "ĠIns": 7535,
      "Ġintroduce": 7536,
      "iated": 7537,
      "gian": 7538,
      "Ġcontained": 7539,
      "ĠPrin": 7540,
      "Ġframework": 7541,
      "ĠOnt": 7542,
      "Ġpretty": 7543,
      "Ġsustainability": 7544,
      "mann": 7545,
      "Ġfeels": 7546,
      "ĠEqu": 7547,
      "onents": 7548,
      "ML": 7549,
      "Ġdishes": 7550,
      "Ġdogs": 7551,
      "Ġidentities": 7552,
      "ythm": 7553,
      "ĠDun": 7554,
      "Ġurg": 7555,
      "Ġpoet": 7556,
      "onym": 7557,
      "Ġstorytelling": 7558,
      "oding": 7559,
      "Ġtact": 7560,
      "Ġremote": 7561,
      "Ġrivers": 7562,
      "vin": 7563,
      "ache": 7564,
      "Ġsettlement": 7565,
      "power": 7566,
      "ĠMars": 7567,
      "ĠCorps": 7568,
      "nce": 7569,
      "Ġce": 7570,
      "Ġmathematics": 7571,
      "coln": 7572,
      "Ġguess": 7573,
      "ĠPhiladelphia": 7574,
      "Ġmoist": 7575,
      "Ġconserv": 7576,
      "Ġtitles": 7577,
      "Ġfr": 7578,
      "ĠAccess": 7579,
      "action": 7580,
      "ko": 7581,
      "whel": 7582,
      "Ġargue": 7583,
      "Ġsessions": 7584,
      "ĠRoute": 7585,
      "ĠReport": 7586,
      "Ġroads": 7587,
      "Ġstatistics": 7588,
      "Ġcomfortable": 7589,
      "urches": 7590,
      "iche": 7591,
      "Ġranging": 7592,
      "Ġpractition": 7593,
      "ador": 7594,
      "Ġobservations": 7595,
      "ĠAN": 7596,
      "abb": 7597,
      "issance": 7598,
      "ĠChristmas": 7599,
      "ĠIraq": 7600,
      "ĠLanguage": 7601,
      "ĠIslands": 7602,
      "Ġmaps": 7603,
      "Ġaqu": 7604,
      "Ġinstalled": 7605,
      "Ġaer": 7606,
      "Ġvisible": 7607,
      "Ġsuffering": 7608,
      "Ġcovers": 7609,
      "Ġcards": 7610,
      "Ġprincipal": 7611,
      "Ġreactions": 7612,
      "DF": 7613,
      "Ġappearances": 7614,
      "Ġsingles": 7615,
      "ĠProvince": 7616,
      "ami": 7617,
      "ĠPu": 7618,
      "iary": 7619,
      "05": 7620,
      "Ġmathematical": 7621,
      "ĠTenn": 7622,
      "Ġstrategic": 7623,
      "Ġvoices": 7624,
      "Ġinternet": 7625,
      "Ġmobile": 7626,
      "Ġly": 7627,
      "Ġ1965": 7628,
      "ĠCase": 7629,
      "Ġminimize": 7630,
      "Su": 7631,
      "atever": 7632,
      "Ġbran": 7633,
      "ĠOnly": 7634,
      "Ġdesire": 7635,
      "ude": 7636,
      "ĠGame": 7637,
      "GBT": 7638,
      "Ġapplying": 7639,
      "Ġbonds": 7640,
      "ĠCa": 7641,
      "Ġphysics": 7642,
      "Ġpuzz": 7643,
      "Ġspending": 7644,
      "Ġpossibly": 7645,
      "Ġgal": 7646,
      "Ġunable": 7647,
      "left": 7648,
      "Ġtransformation": 7649,
      "Ġestate": 7650,
      "Ġorigins": 7651,
      "HE": 7652,
      "Ġshed": 7653,
      "ĠRailway": 7654,
      "Ġfewer": 7655,
      "Ġdistricts": 7656,
      "ultural": 7657,
      "Ġgradually": 7658,
      "ĠUk": 7659,
      "Ġexpressions": 7660,
      "ĠArgent": 7661,
      "uli": 7662,
      "ĠKnow": 7663,
      "ĠMedia": 7664,
      "Ġanswers": 7665,
      "Ġpool": 7666,
      "Ġencouraging": 7667,
      "Ġcaught": 7668,
      "Ã§": 7669,
      "Ġbomb": 7670,
      "Ġconsumers": 7671,
      "Ġcamera": 7672,
      "Ed": 7673,
      "Ġhockey": 7674,
      "ĠAst": 7675,
      "Ġimmers": 7676,
      "ĠEc": 7677,
      "ĠCrit": 7678,
      "Ġcriminal": 7679,
      "Ġmand": 7680,
      "Art": 7681,
      "Ġagents": 7682,
      "eting": 7683,
      "Ġteeth": 7684,
      "Ġgenerated": 7685,
      "ĠHospital": 7686,
      "Ġstrengthen": 7687,
      "Ġcountless": 7688,
      "Ġlaid": 7689,
      "ĠComput": 7690,
      "Since": 7691,
      "outheast": 7692,
      "ĠStory": 7693,
      "itual": 7694,
      "Ġtherm": 7695,
      "Further": 7696,
      "Ġrecognizing": 7697,
      "itals": 7698,
      "Ġlie": 7699,
      "Ġcolumn": 7700,
      "Ġprove": 7701,
      "Ġdipl": 7702,
      "ori": 7703,
      "CS": 7704,
      "Ġchannels": 7705,
      "Ġescape": 7706,
      "Ġ300": 7707,
      "Ġhorm": 7708,
      "da": 7709,
      "oints": 7710,
      "Ġpermanent": 7711,
      "Ġlearners": 7712,
      "Ġcapabilities": 7713,
      "Ġhelpful": 7714,
      "Ġminimum": 7715,
      "aylor": 7716,
      "oys": 7717,
      "Ġdraft": 7718,
      "ĠHand": 7719,
      "Ġcategory": 7720,
      "Ġpreparation": 7721,
      "Ġdefend": 7722,
      "Ġbeat": 7723,
      "ĠElizabeth": 7724,
      "Ġfabric": 7725,
      "but": 7726,
      "Ġbot": 7727,
      "ĠFed": 7728,
      "Ġhandling": 7729,
      "ected": 7730,
      "Ġmemories": 7731,
      "uality": 7732,
      "Ġattached": 7733,
      "Ġabsol": 7734,
      "eling": 7735,
      "car": 7736,
      "Ġcycl": 7737,
      "ĠST": 7738,
      "Ġdesignated": 7739,
      "97": 7740,
      "ĠAz": 7741,
      "RO": 7742,
      "Ġdimens": 7743,
      "Ġinterpretation": 7744,
      "Ġtransmission": 7745,
      "Ġlose": 7746,
      "Ġgranted": 7747,
      "scale": 7748,
      "86": 7749,
      "also": 7750,
      "Ġopposite": 7751,
      "Ġveter": 7752,
      "ĠIndepend": 7753,
      "ĠDaniel": 7754,
      "Ġnone": 7755,
      "Ġintersection": 7756,
      "Ġeducators": 7757,
      "Å¡": 7758,
      "icking": 7759,
      "Ġmanagers": 7760,
      "Over": 7761,
      "Ġepisodes": 7762,
      "Ġdescription": 7763,
      "Ġemployment": 7764,
      "ĠTheatre": 7765,
      "Ġaccessible": 7766,
      "2011": 7767,
      "tery": 7768,
      "oster": 7769,
      "Ġunity": 7770,
      "ĠStrateg": 7771,
      "Ġnavigating": 7772,
      "Ġlibraries": 7773,
      "Ġindicates": 7774,
      "ĠWilson": 7775,
      "ĠCE": 7776,
      "host": 7777,
      "Ġconcentration": 7778,
      "Ġunusual": 7779,
      "iability": 7780,
      "Ġpure": 7781,
      "Ġliteracy": 7782,
      "Ġproved": 7783,
      "Ġreput": 7784,
      "Ġdecline": 7785,
      "ĠNever": 7786,
      "01": 7787,
      "Ġpeoples": 7788,
      "Ġ1966": 7789,
      "ĠGuide": 7790,
      "ployment": 7791,
      "Ġintegration": 7792,
      "Ġforg": 7793,
      "Ġtom": 7794,
      "anger": 7795,
      "Ġtrained": 7796,
      "Ġfunctional": 7797,
      "Qu": 7798,
      "icide": 7799,
      "ĠYet": 7800,
      "Ġpublication": 7801,
      "Ġstick": 7802,
      "ictionary": 7803,
      "ivals": 7804,
      "Ġalgorithms": 7805,
      "lected": 7806,
      "ĠHead": 7807,
      "Ne": 7808,
      "World": 7809,
      "ĠSystems": 7810,
      "cons": 7811,
      "Ġsteel": 7812,
      "isk": 7813,
      "Ġinstances": 7814,
      "Ġcoastal": 7815,
      "ĠDown": 7816,
      "Ġpresc": 7817,
      "Ġlake": 7818,
      "ushed": 7819,
      "Ġdescent": 7820,
      "ĠAwards": 7821,
      "Ġimplementing": 7822,
      "ĠBoy": 7823,
      "Ġchap": 7824,
      "Ġvisitors": 7825,
      "Ġlegislation": 7826,
      "ffee": 7827,
      "Ġconcerned": 7828,
      "Us": 7829,
      "onto": 7830,
      "Ġuniform": 7831,
      "Ġcolleagues": 7832,
      "ĠOlympic": 7833,
      "ĠSports": 7834,
      "ĠNight": 7835,
      "ĠPolish": 7836,
      "ĠSecurity": 7837,
      "Ġimpossible": 7838,
      "cho": 7839,
      "Ġmerely": 7840,
      "fish": 7841,
      "ctor": 7842,
      "orses": 7843,
      "Ġworksh": 7844,
      "Ġfixed": 7845,
      "Ġmeasured": 7846,
      "ois": 7847,
      "Ġovers": 7848,
      "Ġswitch": 7849,
      ",'": 7850,
      "Ġdepos": 7851,
      "istical": 7852,
      "ĠSanta": 7853,
      "ĠÂ£": 7854,
      "Ġemotion": 7855,
      "arios": 7856,
      "Ġcompris": 7857,
      "Ġperformances": 7858,
      "fortunately": 7859,
      "Ġshut": 7860,
      "hab": 7861,
      "Ġcarrying": 7862,
      "Ġqualities": 7863,
      "ĠBerlin": 7864,
      "AM": 7865,
      "vision": 7866,
      "Ġ>": 7867,
      "77": 7868,
      "SP": 7869,
      "Ġorganisms": 7870,
      "ĠOntario": 7871,
      "Ġsummary": 7872,
      "Ġmuscles": 7873,
      "bell": 7874,
      "ĠColorado": 7875,
      "Ġdensity": 7876,
      "Ġtips": 7877,
      "Ġfold": 7878,
      "struct": 7879,
      "ĠGoogle": 7880,
      "ĠCambridge": 7881,
      "CT": 7882,
      "Ġped": 7883,
      "Ġgently": 7884,
      "Ġenthusias": 7885,
      "ĠMountain": 7886,
      "iral": 7887,
      "Ġroof": 7888,
      "ĠBell": 7889,
      "ĠKenn": 7890,
      "Ġtemple": 7891,
      "ouri": 7892,
      "].": 7893,
      "ĠSus": 7894,
      "phone": 7895,
      "ĠMethod": 7896,
      "prene": 7897,
      "ĠThose": 7898,
      "top": 7899,
      "Ġadvantages": 7900,
      "onomic": 7901,
      "izer": 7902,
      "Ġdrinking": 7903,
      "Ġnoise": 7904,
      "Ġprocedure": 7905,
      "acies": 7906,
      "Ġengineer": 7907,
      "Ġagent": 7908,
      "rape": 7909,
      "aser": 7910,
      "body": 7911,
      "reprene": 7912,
      "ĠSecretary": 7913,
      "ĠSign": 7914,
      "Ġshaped": 7915,
      "Ġgeomet": 7916,
      "ĠRay": 7917,
      "ĠHa": 7918,
      "Ġaffili": 7919,
      "ader": 7920,
      "Ġexpertise": 7921,
      "inning": 7922,
      "plot": 7923,
      "rays": 7924,
      "ĠJean": 7925,
      "aints": 7926,
      "Ġstere": 7927,
      "ups": 7928,
      "ĠExploring": 7929,
      "Ġraw": 7930,
      "ĠProp": 7931,
      "Ġmoves": 7932,
      "Last": 7933,
      "inf": 7934,
      "Ġfought": 7935,
      "Ġsurve": 7936,
      "ĠKorean": 7937,
      "ĠTam": 7938,
      "Ġvariations": 7939,
      "Ġcomplicated": 7940,
      "Ġdetermination": 7941,
      "Ġpatience": 7942,
      "Ġbringing": 7943,
      "Ġsettled": 7944,
      "Ġevaluate": 7945,
      "track": 7946,
      "ĠAvenue": 7947,
      "Ð°": 7948,
      "Ġfulf": 7949,
      "Ġmonitor": 7950,
      "Aust": 7951,
      "Ġequipped": 7952,
      "ĠGreece": 7953,
      "Ġinhabitants": 7954,
      "adian": 7955,
      "ogs": 7956,
      "Ġdrink": 7957,
      "iger": 7958,
      "ker": 7959,
      "Ġsubstance": 7960,
      "Ġdifferently": 7961,
      "Ġwound": 7962,
      "Ġexhibit": 7963,
      "acher": 7964,
      "Ġtransferred": 7965,
      "ĠMaria": 7966,
      "May": 7967,
      "Ġnit": 7968,
      "Ġwatching": 7969,
      "Ġsacr": 7970,
      "ĠSon": 7971,
      "Ġhall": 7972,
      "ĠFree": 7973,
      "uther": 7974,
      "ĠGovernor": 7975,
      "zym": 7976,
      "box": 7977,
      "low": 7978,
      "ba": 7979,
      "Ġflag": 7980,
      "Ġforget": 7981,
      "Ġcustoms": 7982,
      "ĠInvest": 7983,
      "Ġidentifying": 7984,
      "1990": 7985,
      "Ġpurs": 7986,
      "Ġapproved": 7987,
      "Ġoverwhel": 7988,
      "ji": 7989,
      "ĠBang": 7990,
      "ĠArm": 7991,
      "aval": 7992,
      "sex": 7993,
      "Ġgreatly": 7994,
      "ĠDise": 7995,
      "Ġ75": 7996,
      "Ġcas": 7997,
      "Ġpassage": 7998,
      "Ġsharp": 7999,
      "cient": 8000,
      "ĠPass": 8001,
      "overy": 8002,
      "ĠMexican": 8003,
      "ĠEngineering": 8004,
      "Ġvessels": 8005,
      "Ġring": 8006,
      "ĠInit": 8007,
      "Ġdecade": 8008,
      "fe": 8009,
      "onomy": 8010,
      "ĠCy": 8011,
      "Ġarguments": 8012,
      "Ġbread": 8013,
      "Ġstrange": 8014,
      "Ġmitig": 8015,
      "inction": 8016,
      "Ġnaturally": 8017,
      "Ġprevention": 8018,
      "Ġcream": 8019,
      "ĠChristians": 8020,
      "ĠMinnes": 8021,
      "Ġzone": 8022,
      "Ġpresents": 8023,
      "1999": 8024,
      "Ġalle": 8025,
      "Ġuncover": 8026,
      "Ġdebates": 8027,
      "esis": 8028,
      "Pr": 8029,
      "Ġcomprom": 8030,
      "Ġarchae": 8031,
      "ĠPrem": 8032,
      "Ġproviders": 8033,
      "Ġfill": 8034,
      "Ġroyal": 8035,
      "ĠMeanwhile": 8036,
      "ĠMcC": 8037,
      "Ġ1963": 8038,
      "ĠLincoln": 8039,
      "mates": 8040,
      "Pre": 8041,
      "ĠSenate": 8042,
      "Ġpromise": 8043,
      "Ġgraphic": 8044,
      "ĠNum": 8045,
      "ĠThough": 8046,
      "Ġmamm": 8047,
      "olitan": 8048,
      "Ġvisited": 8049,
      "igious": 8050,
      "mes": 8051,
      "eness": 8052,
      "89": 8053,
      "iffer": 8054,
      "eted": 8055,
      "2012": 8056,
      "Ġpurchase": 8057,
      "Ġlimitations": 8058,
      "Ġconference": 8059,
      "iac": 8060,
      "exts": 8061,
      "ĠMinnesota": 8062,
      "App": 8063,
      "van": 8064,
      "anged": 8065,
      "ĠPlace": 8066,
      "FF": 8067,
      "Ġdelicious": 8068,
      "Ġdatabase": 8069,
      "Ġoutl": 8070,
      "ĠCirc": 8071,
      "Ġobvious": 8072,
      "Ġconqu": 8073,
      "Ġcombining": 8074,
      "Back": 8075,
      "ighth": 8076,
      "ortion": 8077,
      "Ġelections": 8078,
      "Ġstored": 8079,
      "Ġexpensive": 8080,
      "dule": 8081,
      "etics": 8082,
      "Ġchick": 8083,
      "Ġharvest": 8084,
      "ĠPoland": 8085,
      "ĠAnalysis": 8086,
      "rane": 8087,
      "Ġaccompan": 8088,
      "itled": 8089,
      "Ġcryst": 8090,
      "regon": 8091,
      "ĠFollowing": 8092,
      "irds": 8093,
      "Ġstruggles": 8094,
      "ĠSupport": 8095,
      "Ġcertainly": 8096,
      "Ġgenre": 8097,
      "Ġsurvive": 8098,
      "rooms": 8099,
      "emble": 8100,
      "EP": 8101,
      "ceptions": 8102,
      "Ġmaintained": 8103,
      "Ġpron": 8104,
      "Ġvisiting": 8105,
      "Ġpione": 8106,
      "ĠIndians": 8107,
      "Ġpurchased": 8108,
      "Ġlegacy": 8109,
      "Ġfifth": 8110,
      "Title": 8111,
      "Ġpoliticians": 8112,
      "Ġmac": 8113,
      "ĠGuard": 8114,
      "otypes": 8115,
      "07": 8116,
      "language": 8117,
      "Next": 8118,
      "ĠApplic": 8119,
      "Ġrelief": 8120,
      "Ġsight": 8121,
      "Ġpsychology": 8122,
      "Ġaccel": 8123,
      "vard": 8124,
      "rations": 8125,
      "Ġinterventions": 8126,
      "Ġordinary": 8127,
      "Ġcensus": 8128,
      "VD": 8129,
      "night": 8130,
      "Ġabund": 8131,
      "Ġfib": 8132,
      "06": 8133,
      "ĠChampionships": 8134,
      "asive": 8135,
      "riptions": 8136,
      "Ġinfections": 8137,
      "ĠAdministration": 8138,
      "Ġislands": 8139,
      "Ġgone": 8140,
      "Ġsurfaces": 8141,
      "Ġinequ": 8142,
      "Ġalgorithm": 8143,
      "annel": 8144,
      "ĠRetrieved": 8145,
      "Ġlect": 8146,
      "Ġrecre": 8147,
      "Ġvarying": 8148,
      "Ġcontexts": 8149,
      "Ġtrials": 8150,
      "opes": 8151,
      "Ġille": 8152,
      "Ġdates": 8153,
      "Ġdiagnosis": 8154,
      "ĠAsh": 8155,
      "ĠMill": 8156,
      "aret": 8157,
      "Ġequivalent": 8158,
      "ĠLy": 8159,
      "Ġinches": 8160,
      "Ġfemales": 8161,
      "Ġmarketing": 8162,
      "rizona": 8163,
      "Ġdelivery": 8164,
      "Ġsatisf": 8165,
      "Ġages": 8166,
      "Ġmagnetic": 8167,
      "gest": 8168,
      "Ġfilter": 8169,
      "Films": 8170,
      "Ġequality": 8171,
      "AL": 8172,
      "olt": 8173,
      "hemical": 8174,
      "lements": 8175,
      "gcolor": 8176,
      "Ġevaluation": 8177,
      "athered": 8178,
      "Ġ1944": 8179,
      "ĠTurk": 8180,
      "Ġarise": 8181,
      "Ġhel": 8182,
      "ocated": 8183,
      "CR": 8184,
      "ĠBBC": 8185,
      "chester": 8186,
      "cyclop": 8187,
      "ĊĠĠĠĠĠĠĠĠ": 8188,
      "erly": 8189,
      "Ġobjectives": 8190,
      "ĠGet": 8191,
      "Ġhosp": 8192,
      "ĠBridge": 8193,
      "Ġmolecules": 8194,
      "embers": 8195,
      "Ġmeal": 8196,
      "Ġsolving": 8197,
      "Ġthread": 8198,
      "Ġsession": 8199,
      "ilton": 8200,
      "Ġfaculty": 8201,
      "Ġearn": 8202,
      "Ġtrouble": 8203,
      "connected": 8204,
      "ĠLev": 8205,
      "ĠDub": 8206,
      "Ġholid": 8207,
      "Ġcomedy": 8208,
      "Ġimmun": 8209,
      "Ġru": 8210,
      "Ġsoph": 8211,
      "Ġbranches": 8212,
      "Ġpersonality": 8213,
      "ĠSyd": 8214,
      "Ġclients": 8215,
      "ĠBon": 8216,
      "osph": 8217,
      "Ġreviews": 8218,
      "theless": 8219,
      "aware": 8220,
      "Ġincident": 8221,
      "Ġimprovements": 8222,
      "Ġdispl": 8223,
      "ĠSpring": 8224,
      "ĠHighway": 8225,
      "Ġburied": 8226,
      "Ġconsumer": 8227,
      "Ġtoler": 8228,
      "ĠSud": 8229,
      "alo": 8230,
      "Ġstable": 8231,
      "Ġsevent": 8232,
      "quarters": 8233,
      "ĠHistoric": 8234,
      "Ġvideos": 8235,
      "Ġinfluential": 8236,
      "edge": 8237,
      "ĠDemocratic": 8238,
      "Ġneither": 8239,
      "iÄĩ": 8240,
      "Ġfaces": 8241,
      "Per": 8242,
      "Ġoral": 8243,
      "Ġadaptation": 8244,
      "Ġintegrated": 8245,
      "ĠMarg": 8246,
      "Ġefficiently": 8247,
      "ronze": 8248,
      "Ġcomic": 8249,
      "Ġritual": 8250,
      "Ġmode": 8251,
      "Ġmir": 8252,
      "ĠSpirit": 8253,
      "ĠRog": 8254,
      "eld": 8255,
      "Ġinher": 8256,
      "ĠBa": 8257,
      "iov": 8258,
      "erals": 8259,
      "opt": 8260,
      "Ġdefeat": 8261,
      "Ġcurren": 8262,
      "Ġdesigning": 8263,
      "Ġdifficulties": 8264,
      "Ġpeak": 8265,
      "Ġbanks": 8266,
      "Ġexped": 8267,
      "Ġcelebrate": 8268,
      "AP": 8269,
      "Ġstood": 8270,
      "Brit": 8271,
      "ruption": 8272,
      "Ġobstacles": 8273,
      "ĠJoe": 8274,
      "ĠOs": 8275,
      "Ġoblig": 8276,
      "Ġsentence": 8277,
      "Ġwouldn": 8278,
      "Ġfans": 8279,
      "Ġrice": 8280,
      "chant": 8281,
      "Ġselling": 8282,
      "called": 8283,
      "Ġspons": 8284,
      "acent": 8285,
      "Ġleaf": 8286,
      "Ġscenarios": 8287,
      "oons": 8288,
      "isd": 8289,
      "Life": 8290,
      "Ġactively": 8291,
      "Ġexplicit": 8292,
      "emet": 8293,
      "Ġspark": 8294,
      "Ġcourts": 8295,
      "ĠLook": 8296,
      "bro": 8297,
      "Ġconfig": 8298,
      "United": 8299,
      "taining": 8300,
      "Ġunless": 8301,
      "pes": 8302,
      "Ġmountains": 8303,
      "avery": 8304,
      "Ġaest": 8305,
      "Ġhappening": 8306,
      "Ã¢": 8307,
      "htm": 8308,
      "Ġbene": 8309,
      "Ġgro": 8310,
      "ascular": 8311,
      "Ġresc": 8312,
      "Ġreliable": 8313,
      "Ġ1962": 8314,
      "Ġframe": 8315,
      "elve": 8316,
      "onsin": 8317,
      "Ġnutrients": 8318,
      "mad": 8319,
      "athan": 8320,
      "ĠAgricult": 8321,
      "Ġtailored": 8322,
      "87": 8323,
      "Ġrender": 8324,
      "ĠFuture": 8325,
      "IL": 8326,
      "ĠMult": 8327,
      "Ġcampus": 8328,
      "Ġownership": 8329,
      "ĠUt": 8330,
      "à¤": 8331,
      "Ġmoon": 8332,
      "Ġliver": 8333,
      "adron": 8334,
      "antly": 8335,
      "Ġdamaged": 8336,
      "ello": 8337,
      "Ġsurprise": 8338,
      "ĠPrize": 8339,
      "IP": 8340,
      "zech": 8341,
      "isconsin": 8342,
      "ĠMoon": 8343,
      "ĠInteg": 8344,
      "Ġdepends": 8345,
      "Ġpressing": 8346,
      "Ġerrors": 8347,
      "ĠLi": 8348,
      "Ġcritically": 8349,
      "anning": 8350,
      "Ġstrike": 8351,
      "Ġinclusive": 8352,
      "Ġofficially": 8353,
      "Ġpopularity": 8354,
      "ailed": 8355,
      "oured": 8356,
      "Ġcollections": 8357,
      "rowing": 8358,
      "ĠVictoria": 8359,
      "ĠCultural": 8360,
      "Ġsemi": 8361,
      "Ġexcit": 8362,
      "Ġdelay": 8363,
      "Ġadequate": 8364,
      "spe": 8365,
      "estab": 8366,
      "usal": 8367,
      "Ġphenomena": 8368,
      "Ġorders": 8369,
      "Ġsolely": 8370,
      "Ġopposition": 8371,
      "Ġbeneath": 8372,
      "Ġtested": 8373,
      "Ġcontributes": 8374,
      "Ġdust": 8375,
      "Ġmedications": 8376,
      "ĠKong": 8377,
      "sts": 8378,
      "Ġtournament": 8379,
      "Ġvictims": 8380,
      "Ġdistributed": 8381,
      "rue": 8382,
      "Ġsyndrome": 8383,
      "92": 8384,
      "Ġstreets": 8385,
      "Ġvulnerable": 8386,
      "Ġpreventing": 8387,
      "thod": 8388,
      "ĠBand": 8389,
      "itivity": 8390,
      "Ġtranslation": 8391,
      "Ġlinear": 8392,
      "Ġborders": 8393,
      "Ġadapted": 8394,
      "Ġgiant": 8395,
      "cipl": 8396,
      "Ġunw": 8397,
      "Ġwarming": 8398,
      "osion": 8399,
      "Ġcooperation": 8400,
      "ĠMarine": 8401,
      "Ġbreaking": 8402,
      "ĠLow": 8403,
      "ĠRod": 8404,
      "ĠBeh": 8405,
      "ĠUltimately": 8406,
      "Ġseg": 8407,
      "elly": 8408,
      "Ġprovin": 8409,
      "ĠLGBT": 8410,
      "icism": 8411,
      "ĠĊĊ": 8412,
      "Ġtale": 8413,
      "just": 8414,
      "Ġpreparing": 8415,
      "Ġhighway": 8416,
      "ito": 8417,
      "Ġpractitioners": 8418,
      "aded": 8419,
      "Ġcandidate": 8420,
      "Ġvillages": 8421,
      "ĠVietnam": 8422,
      "Ġaims": 8423,
      "ribed": 8424,
      "uties": 8425,
      "Ġencouraged": 8426,
      "yard": 8427,
      "ĠSydney": 8428,
      "including": 8429,
      "ĠIV": 8430,
      "adow": 8431,
      "DP": 8432,
      "Ġindu": 8433,
      "Ġchampionship": 8434,
      "Ġconsiderable": 8435,
      "Me": 8436,
      "64": 8437,
      "Co": 8438,
      "ĠCorporation": 8439,
      "hedule": 8440,
      "Ġdoors": 8441,
      "Ġaccum": 8442,
      "ĠAgency": 8443,
      "Ġmovies": 8444,
      "ĠPlus": 8445,
      "Ġchose": 8446,
      "Ġthousand": 8447,
      "Ġfurn": 8448,
      "ĠTri": 8449,
      "ĠTrust": 8450,
      "Ġpasses": 8451,
      "Ġlegs": 8452,
      "Ġdisrupt": 8453,
      "sey": 8454,
      "1998": 8455,
      "Ġturb": 8456,
      "ĠBh": 8457,
      "Ġcounsel": 8458,
      "ĠFund": 8459,
      "trans": 8460,
      "Ġmemor": 8461,
      "emetery": 8462,
      "Ġbreath": 8463,
      "Ð¾": 8464,
      "Ġestablishment": 8465,
      "Ġdomain": 8466,
      "Ġcoverage": 8467,
      "oval": 8468,
      "Ġrocks": 8469,
      "Ġbones": 8470,
      "ĠOfficial": 8471,
      "ĠNether": 8472,
      "aled": 8473,
      "Ġseconds": 8474,
      "ĠAR": 8475,
      "Ġgrasp": 8476,
      "Ġadvances": 8477,
      "ĠObs": 8478,
      "Ġpossibility": 8479,
      "wa": 8480,
      "Ġconfirmed": 8481,
      "ĠJon": 8482,
      "Ġheads": 8483,
      "Ġharmony": 8484,
      "door": 8485,
      "ĠWorks": 8486,
      "ĠAk": 8487,
      "Ġreflection": 8488,
      "ĠLewis": 8489,
      "Ġphenomenon": 8490,
      "Tra": 8491,
      "ĠKansas": 8492,
      "Ġoldest": 8493,
      "Ġpreced": 8494,
      "ĠUnivers": 8495,
      "ĠAh": 8496,
      "ĠMissouri": 8497,
      "Ġmere": 8498,
      "olitical": 8499,
      "ĠHeart": 8500,
      "Ġecosystems": 8501,
      "Ġstructural": 8502,
      "Ġdisturb": 8503,
      "rapeut": 8504,
      "Ġtargeted": 8505,
      "itative": 8506,
      "aired": 8507,
      "Ġpresentation": 8508,
      "ĠBab": 8509,
      "Ġequally": 8510,
      "western": 8511,
      "ĠConfed": 8512,
      "Ġadventures": 8513,
      "Ġarmed": 8514,
      "Ġcab": 8515,
      "Ġconcrete": 8516,
      "Ġfalls": 8517,
      "Ġexplor": 8518,
      "Ġwilling": 8519,
      "Activity": 8520,
      "08": 8521,
      "ĠSher": 8522,
      "Ġvon": 8523,
      "Ġhypothes": 8524,
      "Ġsad": 8525,
      "Ġratio": 8526,
      "Ġexplains": 8527,
      "Ġcriteria": 8528,
      "atial": 8529,
      "Ġwine": 8530,
      "ĠArea": 8531,
      "Ġpreval": 8532,
      "ĠWinter": 8533,
      "Ġopposed": 8534,
      "Career": 8535,
      "ĠTaylor": 8536,
      "Ġcalculate": 8537,
      "Ġstead": 8538,
      "Ġfarming": 8539,
      "itter": 8540,
      "Ġemphasis": 8541,
      "ĠCra": 8542,
      "Ġjudge": 8543,
      "Ġcosm": 8544,
      "Ġconfident": 8545,
      "Ġnutrition": 8546,
      "Ġnort": 8547,
      "Ġovercome": 8548,
      "endment": 8549,
      "ĠEmer": 8550,
      "Ġampl": 8551,
      "Ġconstitu": 8552,
      "ĠOregon": 8553,
      "acts": 8554,
      "fare": 8555,
      "Ġri": 8556,
      "Ġadministrative": 8557,
      "ĠWars": 8558,
      "Ġprohib": 8559,
      "Ġlisting": 8560,
      "Ġ1961": 8561,
      "Bu": 8562,
      "His": 8563,
      "Ġinflamm": 8564,
      "Ġfishing": 8565,
      "Ġterror": 8566,
      "Ġdish": 8567,
      "Ġwebsites": 8568,
      "Ġ1948": 8569,
      "Ġparameters": 8570,
      "Ġflying": 8571,
      "overning": 8572,
      "Ġtor": 8573,
      "zer": 8574,
      "ĠGolden": 8575,
      "09": 8576,
      "ĠDam": 8577,
      "ĠContin": 8578,
      "Ġfinish": 8579,
      "Ġlights": 8580,
      "Ġreduces": 8581,
      "Ġfalse": 8582,
      "Ġconven": 8583,
      "ĠBeg": 8584,
      "Ġshares": 8585,
      "Ġoccas": 8586,
      "Ġbrid": 8587,
      "abul": 8588,
      "Ġdimensions": 8589,
      "Ġcriticism": 8590,
      "alion": 8591,
      "Ġsatellite": 8592,
      "ĠSav": 8593,
      "Ġflower": 8594,
      "essee": 8595,
      "Ġflavor": 8596,
      "Ġbgcolor": 8597,
      "Ġintense": 8598,
      "Just": 8599,
      "roid": 8600,
      "agg": 8601,
      "Ġaudio": 8602,
      "Ġenhanced": 8603,
      "lem": 8604,
      "Ġdestruction": 8605,
      "Ġuniversal": 8606,
      "yself": 8607,
      "ĠVi": 8608,
      "angle": 8609,
      "ĠAuthor": 8610,
      "Ġtrains": 8611,
      "2013": 8612,
      "ĠMach": 8613,
      "Ġinvolvement": 8614,
      "Ġmood": 8615,
      "ĠMike": 8616,
      "Ġ33": 8617,
      "Ġfossil": 8618,
      "Ġbiology": 8619,
      "Ġdominant": 8620,
      "HL": 8621,
      "hend": 8622,
      "bean": 8623,
      "Ġgenu": 8624,
      "Ġargued": 8625,
      "iture": 8626,
      "iants": 8627,
      "Def": 8628,
      "Ġadds": 8629,
      "agan": 8630,
      "Ġcomputing": 8631,
      "Ġsupposed": 8632,
      "Ġpump": 8633,
      "elihood": 8634,
      "Disc": 8635,
      "ĠPur": 8636,
      "ĠBeach": 8637,
      "uce": 8638,
      "Ġpoem": 8639,
      "ials": 8640,
      "Ġphilosoph": 8641,
      "Ġwing": 8642,
      "Ġcovering": 8643,
      "struction": 8644,
      "Ġsizes": 8645,
      "Ġcompetitive": 8646,
      "Ġretire": 8647,
      "Ġpapers": 8648,
      "arry": 8649,
      "Ġlegend": 8650,
      "Ġmedieval": 8651,
      "Ġalive": 8652,
      "yo": 8653,
      "Ġrising": 8654,
      "Part": 8655,
      "uh": 8656,
      "Ġbroke": 8657,
      "ĠWisconsin": 8658,
      "hesis": 8659,
      "Ġsubstances": 8660,
      "ĠAM": 8661,
      "Ġcopies": 8662,
      "ĠMic": 8663,
      "ĠMrs": 8664,
      "VI": 8665,
      "Ġreturning": 8666,
      "cul": 8667,
      "Ġevening": 8668,
      "Stud": 8669,
      "Ġrecept": 8670,
      "Ġtension": 8671,
      "Ġathletes": 8672,
      "Ġplane": 8673,
      "Ġrecru": 8674,
      "pton": 8675,
      "Ġregulation": 8676,
      "Of": 8677,
      "ĠTake": 8678,
      "aine": 8679,
      "ĠTitle": 8680,
      "1997": 8681,
      "Ġdiving": 8682,
      "ĠPrim": 8683,
      "ĠArizona": 8684,
      "iner": 8685,
      "Ġsocio": 8686,
      "achel": 8687,
      "ĠSant": 8688,
      "Ġobjective": 8689,
      "oa": 8690,
      "word": 8691,
      "Ġcontrols": 8692,
      "Ġcircuit": 8693,
      "asures": 8694,
      "Ġquiet": 8695,
      "Ġdifficulty": 8696,
      "93": 8697,
      "umental": 8698,
      "Ġmales": 8699,
      "ĠAS": 8700,
      "Ġmechanism": 8701,
      "Ġtribes": 8702,
      "Ġzero": 8703,
      "Ġprofile": 8704,
      "pha": 8705,
      "Ġcommittee": 8706,
      "Will": 8707,
      "Ġcentered": 8708,
      "eller": 8709,
      "Men": 8710,
      "56": 8711,
      "idae": 8712,
      "ĠVill": 8713,
      "Ġestablishing": 8714,
      "Ġvocal": 8715,
      "chestra": 8716,
      "Ġ400": 8717,
      "Ġexcited": 8718,
      "Ġ37": 8719,
      "dr": 8720,
      "akh": 8721,
      "Ġhighlights": 8722,
      "Ġguarant": 8723,
      "ennis": 8724,
      "earing": 8725,
      "Ġlosses": 8726,
      "Ġtraits": 8727,
      "Ġeffectiveness": 8728,
      "ĠHeb": 8729,
      "li": 8730,
      "Ġdivine": 8731,
      "Ġsuddenly": 8732,
      "Ġscientist": 8733,
      "ragon": 8734,
      "Ġgentle": 8735,
      "Ġfemin": 8736,
      "soft": 8737,
      "Ġcontam": 8738,
      "Ġearthqu": 8739,
      "anned": 8740,
      "Ġattitudes": 8741,
      "Ġexcessive": 8742,
      "ĠMind": 8743,
      "Ġstuff": 8744,
      "Ġnecessarily": 8745,
      "Ġgathered": 8746,
      "Ġ1942": 8747,
      "ĠCaptain": 8748,
      "Ġcoffee": 8749,
      "Ġnarrative": 8750,
      "Ġstaying": 8751,
      "Ġmetab": 8752,
      "Ġtreating": 8753,
      "ĠIndones": 8754,
      "Ġdiplom": 8755,
      "eman": 8756,
      "rates": 8757,
      "Ġanticip": 8758,
      "lation": 8759,
      "Ġmechanical": 8760,
      "ĠPict": 8761,
      "otton": 8762,
      "Ġawards": 8763,
      "Ġdropped": 8764,
      "ĠOnline": 8765,
      "geon": 8766,
      "Ġtut": 8767,
      "olly": 8768,
      "Ġintegrating": 8769,
      "iah": 8770,
      "Em": 8771,
      "Ġimplemented": 8772,
      "Ac": 8773,
      "ĠComple": 8774,
      "Ġpaintings": 8775,
      "ampl": 8776,
      "ĠDigital": 8777,
      "ĠStephen": 8778,
      "Ġflows": 8779,
      "Ġbio": 8780,
      "ĠArthur": 8781,
      "Ġham": 8782,
      "ĠToronto": 8783,
      "Ġachieving": 8784,
      "Ġempt": 8785,
      "ĠCost": 8786,
      "ĠBrad": 8787,
      "orted": 8788,
      "ĠVo": 8789,
      "print": 8790,
      "Ġtempor": 8791,
      "Ġexcitement": 8792,
      "Ġlaboratory": 8793,
      "ĠLady": 8794,
      "atal": 8795,
      "Ġtheoretical": 8796,
      "iciency": 8797,
      "Ġprospect": 8798,
      "sters": 8799,
      "roud": 8800,
      "ĠAdvent": 8801,
      "ĠNic": 8802,
      "Nov": 8803,
      "Ġstopped": 8804,
      "ĠHay": 8805,
      "orship": 8806,
      "ussion": 8807,
      "Ġvolcan": 8808,
      "Ġroutes": 8809,
      "Ġpromoted": 8810,
      "ĠDuke": 8811,
      "ĠCop": 8812,
      "ĠAppro": 8813,
      "egu": 8814,
      "Ġaged": 8815,
      "ĠTurkey": 8816,
      "sm": 8817,
      "ierarch": 8818,
      "Ġinsects": 8819,
      "Ġrepair": 8820,
      "ĠFa": 8821,
      "Ġengines": 8822,
      "Ġmining": 8823,
      "Ġoccupied": 8824,
      "exp": 8825,
      "SR": 8826,
      "ez": 8827,
      "Ġreflecting": 8828,
      "olves": 8829,
      "Ġstakeholders": 8830,
      "ĠRaj": 8831,
      "Ġhorses": 8832,
      "Ġcorresponding": 8833,
      "ĠSunday": 8834,
      "ĠBru": 8835,
      "Sw": 8836,
      "thodox": 8837,
      "ĠTemple": 8838,
      "Ġ2023": 8839,
      "ĠNetherlands": 8840,
      "Ġfootballer": 8841,
      "Ġphotos": 8842,
      "Ġrub": 8843,
      "Ġ1941": 8844,
      "AD": 8845,
      "ĠBrig": 8846,
      "Ġearliest": 8847,
      "ĠIP": 8848,
      "Ġdriver": 8849,
      "ĠContemporary": 8850,
      "Ġschedul": 8851,
      "Ġlists": 8852,
      "Ġsuit": 8853,
      "Ġ150": 8854,
      "ĠAP": 8855,
      "Ġid": 8856,
      "Ġcalling": 8857,
      "ĠPerform": 8858,
      "Ġexpanding": 8859,
      "Ġwat": 8860,
      "owa": 8861,
      "abil": 8862,
      "ĠWindows": 8863,
      "Ġbackgrounds": 8864,
      "Ġtoys": 8865,
      "ĠTurn": 8866,
      "ĠMarsh": 8867,
      "Ġcomplexities": 8868,
      "ĠCountry": 8869,
      "94": 8870,
      "Ġcompounds": 8871,
      "ouses": 8872,
      "merce": 8873,
      "Ġconstrain": 8874,
      "ĠRen": 8875,
      "Ġentreprene": 8876,
      "ĠChange": 8877,
      "Ġabstract": 8878,
      "elfare": 8879,
      "Ġstatements": 8880,
      "Ġnormally": 8881,
      "Today": 8882,
      "Ġdoubt": 8883,
      "Ġspoken": 8884,
      "ĠDavis": 8885,
      "Ġsuperior": 8886,
      "Ġteachings": 8887,
      "Ġdisag": 8888,
      "gans": 8889,
      "British": 8890,
      "Ġtrail": 8891,
      "ĠPractice": 8892,
      "Ġshop": 8893,
      "Ġmigration": 8894,
      "Ġsupplement": 8895,
      "Ġsoccer": 8896,
      "ĠHan": 8897,
      "ĠRo": 8898,
      "lan": 8899,
      "ĠFriend": 8900,
      "Ġdebt": 8901,
      "Ġsophistic": 8902,
      "ĠBatt": 8903,
      "Educ": 8904,
      "Ġcrick": 8905,
      "Ġundert": 8906,
      "Ġ65": 8907,
      "iki": 8908,
      "Sec": 8909,
      "ĠEss": 8910,
      "Ġestimate": 8911,
      "()`": 8912,
      "Ġpregnancy": 8913,
      "Ġ1959": 8914,
      "issipp": 8915,
      "lete": 8916,
      "Ġclick": 8917,
      "Ġdecrease": 8918,
      "Ġvaccine": 8919,
      "Ġbat": 8920,
      "Ġcomments": 8921,
      "Ġterritories": 8922,
      "Ġgrapp": 8923,
      "ĠPalest": 8924,
      "Ġreward": 8925,
      "regation": 8926,
      "Ġpharm": 8927,
      "Ġstrongly": 8928,
      "Ġclimb": 8929,
      "ĠNap": 8930,
      "Ġchrom": 8931,
      "Ġopinions": 8932,
      "ĠRepublican": 8933,
      "ĠMaryland": 8934,
      "ĠConclusion": 8935,
      "Ġparticipating": 8936,
      "Ġrelation": 8937,
      "Ġroutine": 8938,
      "1996": 8939,
      "Ġsitting": 8940,
      "Ġcompare": 8941,
      "Ġmixture": 8942,
      "ĠCastle": 8943,
      "Ġeager": 8944,
      "Ġconverted": 8945,
      "ĠBan": 8946,
      "ĠUnlike": 8947,
      "67": 8948,
      "Ġminister": 8949,
      "Ġrefused": 8950,
      "Ġinject": 8951,
      "imensional": 8952,
      "Ġevolving": 8953,
      "Ġpercentage": 8954,
      "Ġjuvenile": 8955,
      "Ġsacred": 8956,
      "Ġseparated": 8957,
      "Ġresid": 8958,
      "ostic": 8959,
      "Ġcritics": 8960,
      "aug": 8961,
      "apse": 8962,
      "eties": 8963,
      "Ġmolecular": 8964,
      "Ġliv": 8965,
      "Ġestimates": 8966,
      "Ġchurches": 8967,
      "Ġdisaster": 8968,
      "ĠBall": 8969,
      "Ġrecommendations": 8970,
      "Ġsurrounded": 8971,
      "Ġcustomer": 8972,
      "Ġsuffer": 8973,
      "import": 8974,
      "Ġpilot": 8975,
      "Ġ1956": 8976,
      "Ġbibl": 8977,
      "Ġsomewhat": 8978,
      "Ġuniversities": 8979,
      "Reg": 8980,
      "Ġparish": 8981,
      "Ġentertainment": 8982,
      "Ġputting": 8983,
      "Ġinterconnected": 8984,
      "Ġtoxic": 8985,
      "ĠHum": 8986,
      "Ass": 8987,
      "Ġdetection": 8988,
      "ĠSteve": 8989,
      "Ġenzym": 8990,
      "Ġfairly": 8991,
      "Ġextend": 8992,
      "ĠBrother": 8993,
      "iva": 8994,
      "Ġboat": 8995,
      "Ġroughly": 8996,
      "Ġbought": 8997,
      "ĠHard": 8998,
      "Ġallerg": 8999,
      "Ġgram": 9000,
      "uv": 9001,
      "hero": 9002,
      "Ġvig": 9003,
      "inates": 9004,
      "Ġprivacy": 9005,
      "lah": 9006,
      "Ġdatas": 9007,
      "Ġmodified": 9008,
      "Ġdriven": 9009,
      "ĠHawai": 9010,
      "Ġproduces": 9011,
      "Ġdiscoveries": 9012,
      "Ġaccordingly": 9013,
      "03": 9014,
      "Ġconsciousness": 9015,
      "Ġobserve": 9016,
      "brid": 9017,
      "Ġpermission": 9018,
      "Ġduty": 9019,
      "olds": 9020,
      "Ġraising": 9021,
      "Remember": 9022,
      "Ġinterpre": 9023,
      "Ġplease": 9024,
      "Ġceleb": 9025,
      "Ġmyself": 9026,
      "ĠIndiana": 9027,
      "ĠLes": 9028,
      "ĠFarm": 9029,
      "Ġha": 9030,
      "ropolitan": 9031,
      "Ġprecise": 9032,
      "Ġevil": 9033,
      "Ġboost": 9034,
      "Ġhunting": 9035,
      "Ġsod": 9036,
      "Ġrect": 9037,
      "ĠRegion": 9038,
      "raine": 9039,
      "Ġassets": 9040,
      "Ġ1939": 9041,
      "Ġcompens": 9042,
      "Ġfounder": 9043,
      "angers": 9044,
      "obb": 9045,
      "Ġdownload": 9046,
      "ĠAud": 9047,
      "Ġsituated": 9048,
      "Ġrealize": 9049,
      "aders": 9050,
      "ĠFox": 9051,
      "91": 9052,
      "Ġ1943": 9053,
      "Ġbow": 9054,
      "Ġphotography": 9055,
      "Ġinhib": 9056,
      "actions": 9057,
      "oca": 9058,
      "ĠCulture": 9059,
      "58": 9060,
      "Ġ38": 9061,
      "IDS": 9062,
      "====": 9063,
      "Ġcircle": 9064,
      "Ġreign": 9065,
      "Ġcoaches": 9066,
      "apped": 9067,
      "Ġfrequent": 9068,
      "Ġbiggest": 9069,
      "Ġwish": 9070,
      "Ġexperimental": 9071,
      "ĠMD": 9072,
      "ĠDoes": 9073,
      "bourne": 9074,
      "Ġmeters": 9075,
      "ession": 9076,
      "Ġaccurately": 9077,
      "Ġloyal": 9078,
      "Ġracing": 9079,
      "Ġlighting": 9080,
      "Ġtank": 9081,
      "owder": 9082,
      "Sports": 9083,
      "Ġkilling": 9084,
      "Ġillustrate": 9085,
      "ghan": 9086,
      "ĠDer": 9087,
      "rolled": 9088,
      "ĠTennessee": 9089,
      "Ġperpet": 9090,
      "?**": 9091,
      "Ġpositively": 9092,
      "Ġtaxes": 9093,
      "Ġrelevance": 9094,
      "Ġbust": 9095,
      "Ġcurriculum": 9096,
      "Ġmini": 9097,
      "Ġtemporary": 9098,
      "Ġvitamin": 9099,
      "Ġfert": 9100,
      "Ġexpat": 9101,
      "RC": 9102,
      "Ġneck": 9103,
      "type": 9104,
      "Ġfract": 9105,
      "orge": 9106,
      "ĠLog": 9107,
      "Ġmeasurements": 9108,
      "Ġtitled": 9109,
      "Ġ1947": 9110,
      "Ġjurisd": 9111,
      "ped": 9112,
      "ĠAgain": 9113,
      "ĠPC": 9114,
      "Ġtrauma": 9115,
      "Ġrenamed": 9116,
      "Ġreporting": 9117,
      "inus": 9118,
      "ĠPoint": 9119,
      "Ġentities": 9120,
      "ĠHong": 9121,
      "portation": 9122,
      "Ġentering": 9123,
      "Sm": 9124,
      "ailing": 9125,
      "Ġangle": 9126,
      "Ġsons": 9127,
      "ĠAnton": 9128,
      "heric": 9129,
      "ompson": 9130,
      "Ġinspect": 9131,
      "rapeutic": 9132,
      "Ġcaptain": 9133,
      "âĢĿ.": 9134,
      "Ġconstantly": 9135,
      "utenant": 9136,
      "Ġreveals": 9137,
      "Ġobservation": 9138,
      "aki": 9139,
      "ĠQueens": 9140,
      "Ġflavors": 9141,
      "Ġnest": 9142,
      "ĠSweden": 9143,
      "ĠThroughout": 9144,
      "isition": 9145,
      "ownt": 9146,
      "Ġbreathing": 9147,
      "Ġdrivers": 9148,
      "Ġregarded": 9149,
      "ders": 9150,
      "Ġmarks": 9151,
      "Ġ1958": 9152,
      "Ġseam": 9153,
      "issippi": 9154,
      "uisine": 9155,
      "Ġhighlighting": 9156,
      "itzerland": 9157,
      "2014": 9158,
      "Ġble": 9159,
      "ĠBat": 9160,
      "Ġattending": 9161,
      "Ġexperiencing": 9162,
      "Ġpubl": 9163,
      "57": 9164,
      "Ġlasting": 9165,
      "umps": 9166,
      "uct": 9167,
      "ĠResources": 9168,
      "ĠPlant": 9169,
      "ĠJane": 9170,
      "onom": 9171,
      "fiction": 9172,
      "obile": 9173,
      "Ġnecessit": 9174,
      "ĠJacob": 9175,
      "Ġwonderful": 9176,
      "Dem": 9177,
      "ribe": 9178,
      "rator": 9179,
      "ĠFather": 9180,
      "ĠPolicy": 9181,
      "ĠÅ": 9182,
      "Ġtower": 9183,
      "Ġreader": 9184,
      "thew": 9185,
      "Ġbrothers": 9186,
      "ĠProm": 9187,
      "ĠConservation": 9188,
      "Ġappoint": 9189,
      "angel": 9190,
      "04": 9191,
      "Ġcharged": 9192,
      "Ġgovernor": 9193,
      "Ġcater": 9194,
      "Ġparks": 9195,
      "ĠSem": 9196,
      "ĠAny": 9197,
      "ĠLt": 9198,
      "Ġending": 9199,
      "Ġdreams": 9200,
      "rating": 9201,
      "occ": 9202,
      "Form": 9203,
      "Ġextension": 9204,
      "oga": 9205,
      "OL": 9206,
      "Ġwheel": 9207,
      "Sim": 9208,
      "ĠTok": 9209,
      "atus": 9210,
      "Ġplus": 9211,
      "Ġgoverning": 9212,
      "ĠCreat": 9213,
      "Ġintegrity": 9214,
      "ĠImport": 9215,
      "Ġsafely": 9216,
      "Ġecological": 9217,
[...]
